unsigned char mnist_model_tflite[] = {
  0x1c, 0x00, 0x00, 0x00, 0x54, 0x46, 0x4c, 0x33, 0x14, 0x00, 0x20, 0x00,
  0x1c, 0x00, 0x18, 0x00, 0x14, 0x00, 0x10, 0x00, 0x0c, 0x00, 0x00, 0x00,
  0x08, 0x00, 0x04, 0x00, 0x14, 0x00, 0x00, 0x00, 0x1c, 0x00, 0x00, 0x00,
  0x98, 0x00, 0x00, 0x00, 0x18, 0x01, 0x00, 0x00, 0x38, 0x66, 0x00, 0x00,
  0x48, 0x66, 0x00, 0x00, 0x48, 0x70, 0x00, 0x00, 0x03, 0x00, 0x00, 0x00,
  0x01, 0x00, 0x00, 0x00, 0x10, 0x00, 0x00, 0x00, 0x00, 0x00, 0x0a, 0x00,
  0x10, 0x00, 0x0c, 0x00, 0x08, 0x00, 0x04, 0x00, 0x0a, 0x00, 0x00, 0x00,
  0x0c, 0x00, 0x00, 0x00, 0x1c, 0x00, 0x00, 0x00, 0x3c, 0x00, 0x00, 0x00,
  0x0f, 0x00, 0x00, 0x00, 0x73, 0x65, 0x72, 0x76, 0x69, 0x6e, 0x67, 0x5f,
  0x64, 0x65, 0x66, 0x61, 0x75, 0x6c, 0x74, 0x00, 0x01, 0x00, 0x00, 0x00,
  0x04, 0x00, 0x00, 0x00, 0x68, 0xff, 0xff, 0xff, 0x09, 0x00, 0x00, 0x00,
  0x04, 0x00, 0x00, 0x00, 0x08, 0x00, 0x00, 0x00, 0x6f, 0x75, 0x74, 0x70,
  0x75, 0x74, 0x5f, 0x30, 0x00, 0x00, 0x00, 0x00, 0x01, 0x00, 0x00, 0x00,
  0x04, 0x00, 0x00, 0x00, 0xbe, 0x99, 0xff, 0xff, 0x04, 0x00, 0x00, 0x00,
  0x0c, 0x00, 0x00, 0x00, 0x6b, 0x65, 0x72, 0x61, 0x73, 0x5f, 0x74, 0x65,
  0x6e, 0x73, 0x6f, 0x72, 0x00, 0x00, 0x00, 0x00, 0x03, 0x00, 0x00, 0x00,
  0x5c, 0x00, 0x00, 0x00, 0x2c, 0x00, 0x00, 0x00, 0x04, 0x00, 0x00, 0x00,
  0xb8, 0xff, 0xff, 0xff, 0x0d, 0x00, 0x00, 0x00, 0x04, 0x00, 0x00, 0x00,
  0x13, 0x00, 0x00, 0x00, 0x43, 0x4f, 0x4e, 0x56, 0x45, 0x52, 0x53, 0x49,
  0x4f, 0x4e, 0x5f, 0x4d, 0x45, 0x54, 0x41, 0x44, 0x41, 0x54, 0x41, 0x00,
  0xdc, 0xff, 0xff, 0xff, 0x0c, 0x00, 0x00, 0x00, 0x04, 0x00, 0x00, 0x00,
  0x13, 0x00, 0x00, 0x00, 0x6d, 0x69, 0x6e, 0x5f, 0x72, 0x75, 0x6e, 0x74,
  0x69, 0x6d, 0x65, 0x5f, 0x76, 0x65, 0x72, 0x73, 0x69, 0x6f, 0x6e, 0x00,
  0x08, 0x00, 0x0c, 0x00, 0x08, 0x00, 0x04, 0x00, 0x08, 0x00, 0x00, 0x00,
  0x0b, 0x00, 0x00, 0x00, 0x04, 0x00, 0x00, 0x00, 0x13, 0x00, 0x00, 0x00,
  0x6d, 0x69, 0x6e, 0x5f, 0x72, 0x75, 0x6e, 0x74, 0x69, 0x6d, 0x65, 0x5f,
  0x76, 0x65, 0x72, 0x73, 0x69, 0x6f, 0x6e, 0x00, 0x0e, 0x00, 0x00, 0x00,
  0x1c, 0x65, 0x00, 0x00, 0x14, 0x65, 0x00, 0x00, 0xfc, 0x64, 0x00, 0x00,
  0xc4, 0x64, 0x00, 0x00, 0x74, 0x63, 0x00, 0x00, 0xe4, 0x62, 0x00, 0x00,
  0xd4, 0x00, 0x00, 0x00, 0xcc, 0x00, 0x00, 0x00, 0xc4, 0x00, 0x00, 0x00,
  0xbc, 0x00, 0x00, 0x00, 0xb4, 0x00, 0x00, 0x00, 0x94, 0x00, 0x00, 0x00,
  0x74, 0x00, 0x00, 0x00, 0x04, 0x00, 0x00, 0x00, 0x9a, 0x9a, 0xff, 0xff,
  0x04, 0x00, 0x00, 0x00, 0x60, 0x00, 0x00, 0x00, 0x0c, 0x00, 0x00, 0x00,
  0x08, 0x00, 0x0e, 0x00, 0x08, 0x00, 0x04, 0x00, 0x08, 0x00, 0x00, 0x00,
  0x10, 0x00, 0x00, 0x00, 0x28, 0x00, 0x00, 0x00, 0x00, 0x00, 0x06, 0x00,
  0x08, 0x00, 0x04, 0x00, 0x06, 0x00, 0x00, 0x00, 0x04, 0x00, 0x00, 0x00,
  0x01, 0x00, 0x00, 0x00, 0xeb, 0x03, 0x00, 0x00, 0x0c, 0x00, 0x18, 0x00,
  0x14, 0x00, 0x10, 0x00, 0x0c, 0x00, 0x04, 0x00, 0x0c, 0x00, 0x00, 0x00,
  0x1b, 0x37, 0xa2, 0x82, 0xfe, 0x55, 0x41, 0x7d, 0x02, 0x00, 0x00, 0x00,
  0x02, 0x00, 0x00, 0x00, 0x04, 0x00, 0x00, 0x00, 0x06, 0x00, 0x00, 0x00,
  0x32, 0x2e, 0x31, 0x38, 0x2e, 0x31, 0x00, 0x00, 0x06, 0x9b, 0xff, 0xff,
  0x04, 0x00, 0x00, 0x00, 0x10, 0x00, 0x00, 0x00, 0x00, 0x00, 0x00, 0x00,
  0x00, 0x00, 0x00, 0x00, 0x00, 0x00, 0x00, 0x00, 0x00, 0x00, 0x00, 0x00,
  0x22, 0x9b, 0xff, 0xff, 0x04, 0x00, 0x00, 0x00, 0x10, 0x00, 0x00, 0x00,
  0x31, 0x2e, 0x31, 0x34, 0x2e, 0x30, 0x00, 0x00, 0x00, 0x00, 0x00, 0x00,
  0x00, 0x00, 0x00, 0x00, 0x7c, 0x92, 0xff, 0xff, 0x80, 0x92, 0xff, 0xff,
  0x84, 0x92, 0xff, 0xff, 0x88, 0x92, 0xff, 0xff, 0x4e, 0x9b, 0xff, 0xff,
  0x04, 0x00, 0x00, 0x00, 0x00, 0x62, 0x00, 0x00, 0xf2, 0xff, 0x05, 0x0d,
  0x09, 0xf4, 0x0b, 0xfd, 0xf9, 0x05, 0x0d, 0x0c, 0xe7, 0xe5, 0xf1, 0xef,
  0xf5, 0x00, 0xf6, 0x0a, 0xf9, 0x02, 0x0c, 0xfa, 0xf3, 0xf5, 0xff, 0x01,
  0xfd, 0x00, 0xfd, 0xfb, 0xfd, 0xf0, 0xe7, 0xce, 0xcd, 0xb1, 0xce, 0xf7,
  0xe7, 0xd1, 0xf4, 0xde, 0xb9, 0xba, 0xb6, 0xd7, 0xc9, 0xce, 0xd6, 0xd5,
  0xfe, 0x05, 0x00, 0xf4, 0xfe, 0xf5, 0xe0, 0xf1, 0xf6, 0xd7, 0xd4, 0xcd,
  0xb9, 0xbe, 0xc0, 0xbc, 0xcb, 0xa1, 0x9c, 0xb1, 0xf5, 0xec, 0xc8, 0x9b,
  0xd1, 0xaa, 0xc4, 0xc3, 0xd6, 0xdb, 0xf9, 0x01, 0xfd, 0x05, 0x09, 0xd9,
  0xea, 0xe6, 0xb8, 0x8d, 0xb8, 0xd5, 0xef, 0xc3, 0xba, 0x9a, 0xb7, 0xe1,
  0xf4, 0x04, 0xfb, 0xd1, 0xe7, 0xc5, 0xbd, 0xcf, 0xd3, 0xd0, 0xe0, 0x0a,
  0x08, 0x04, 0x23, 0x1c, 0xfe, 0xdc, 0xd5, 0xda, 0xee, 0xd3, 0xe1, 0xfe,
  0xfc, 0x13, 0xf8, 0xf1, 0xe8, 0xd7, 0xed, 0xd3, 0xe2, 0x00, 0x1a, 0x0a,
  0x36, 0x1c, 0x07, 0xe5, 0x01, 0x0b, 0x05, 0xfe, 0xf3, 0xec, 0xfc, 0xfd,
  0xf8, 0x0e, 0x0a, 0x16, 0x15, 0x03, 0x07, 0x14, 0xf3, 0xef, 0xf2, 0xcb,
  0xd4, 0xd7, 0x00, 0xee, 0xf4, 0x02, 0xea, 0x01, 0xfe, 0x11, 0x06, 0x05,
  0xed, 0x08, 0x03, 0x00, 0x0e, 0x31, 0x3e, 0x2d, 0x10, 0x2a, 0x30, 0x13,
  0x1f, 0x0f, 0x03, 0xdf, 0xec, 0xfa, 0xd4, 0x00, 0xce, 0xcc, 0x1a, 0xf5,
  0x0e, 0x26, 0xe1, 0x10, 0x05, 0x13, 0x1b, 0xf3, 0x0f, 0x14, 0x28, 0x14,
  0x28, 0x33, 0x15, 0x23, 0x2d, 0x25, 0x0b, 0x08, 0xf9, 0xe4, 0xcb, 0xf4,
  0x07, 0xe3, 0xfc, 0xcb, 0xd0, 0x9c, 0x07, 0x2e, 0x01, 0x04, 0x0a, 0xe6,
  0x10, 0x05, 0x11, 0x07, 0x05, 0x37, 0x2d, 0x3e, 0x36, 0x3a, 0x39, 0x02,
  0xf2, 0x00, 0xf8, 0xbe, 0xeb, 0xfc, 0x09, 0xcb, 0xe7, 0xd9, 0x14, 0x1a,
  0x04, 0xf2, 0x0f, 0xfb, 0x03, 0x00, 0xf9, 0xfc, 0x01, 0x14, 0x19, 0x38,
  0x55, 0x53, 0x3a, 0xfb, 0xee, 0x01, 0x12, 0xf8, 0xc4, 0xe4, 0x04, 0xfc,
  0xf4, 0xce, 0xf0, 0x25, 0xf6, 0xf4, 0x07, 0xe4, 0xed, 0xeb, 0xf1, 0xdd,
  0xff, 0xf8, 0xfc, 0x0f, 0x40, 0x29, 0x15, 0x06, 0xf5, 0xf5, 0x29, 0x15,
  0xd7, 0x07, 0xee, 0x15, 0x02, 0xcc, 0xee, 0x1e, 0x10, 0xf8, 0xf5, 0x01,
  0xf9, 0xde, 0xea, 0xe6, 0xed, 0xf1, 0xeb, 0x12, 0x23, 0x36, 0x12, 0x00,
  0xfa, 0x05, 0x19, 0xde, 0xce, 0xcb, 0x00, 0xf3, 0x0f, 0xcc, 0xcf, 0xe9,
  0x09, 0xf9, 0x04, 0xf4, 0xf4, 0xe0, 0xf5, 0xe3, 0xf6, 0xf1, 0xe4, 0x19,
  0x00, 0x0c, 0x1d, 0x11, 0x08, 0xeb, 0xfc, 0xfb, 0xdc, 0x03, 0x10, 0x09,
  0xf0, 0xdc, 0xa6, 0xd9, 0x0b, 0xda, 0x03, 0x0f, 0x1a, 0xfe, 0xf9, 0x18,
  0x0e, 0xfe, 0x0d, 0x0f, 0x12, 0x2d, 0x23, 0x02, 0xf6, 0x04, 0x01, 0xcb,
  0xd4, 0x1f, 0x1c, 0xd2, 0xf0, 0x18, 0xb9, 0xff, 0xf3, 0xea, 0xf8, 0x12,
  0x27, 0x0a, 0xec, 0x0b, 0x23, 0x24, 0x07, 0x1a, 0x12, 0x4f, 0x11, 0xf3,
  0x05, 0xfe, 0x08, 0xd7, 0xdb, 0x0c, 0x06, 0xd2, 0xe8, 0x1f, 0xfa, 0xfc,
  0xef, 0xe6, 0xe6, 0x07, 0x20, 0x06, 0x0d, 0x24, 0x1e, 0x13, 0x08, 0x1a,
  0x44, 0x54, 0xf7, 0xe8, 0x02, 0x13, 0x25, 0x0d, 0xb9, 0xe3, 0x39, 0xd6,
  0x06, 0x22, 0x28, 0x18, 0x05, 0xf1, 0xfe, 0x0d, 0x17, 0x07, 0x22, 0x1e,
  0x32, 0x2e, 0xfe, 0x19, 0x17, 0x1e, 0x0a, 0xe1, 0x00, 0x05, 0xfe, 0xff,
  0xd6, 0xc2, 0xf2, 0xca, 0xfd, 0x2c, 0x3a, 0x0f, 0xf8, 0xcd, 0xde, 0x09,
  0x03, 0xfe, 0xdb, 0xed, 0x0c, 0x07, 0xf4, 0x0f, 0x16, 0x1a, 0xf5, 0x04,
  0xf6, 0xf8, 0x03, 0xf8, 0xbf, 0xaa, 0xfe, 0xdb, 0xd8, 0x15, 0x1f, 0x16,
  0xe6, 0xe0, 0xec, 0xf2, 0x04, 0xdc, 0xe2, 0x00, 0xe7, 0xfb, 0xfb, 0x01,
  0x0f, 0xfb, 0xde, 0xfc, 0xf8, 0x19, 0x07, 0xb4, 0x93, 0x81, 0x00, 0xca,
  0x03, 0xe3, 0xf6, 0x16, 0xea, 0xe9, 0xe1, 0xe4, 0xeb, 0xc8, 0xcd, 0xe6,
  0xe1, 0xef, 0xe4, 0xf2, 0x09, 0xec, 0xfc, 0x01, 0x08, 0x19, 0xd9, 0xbb,
  0xb0, 0xb1, 0xc0, 0xcd, 0x05, 0x2a, 0xe8, 0x1d, 0x15, 0xf7, 0xeb, 0xe0,
  0xea, 0xcc, 0xd6, 0xdb, 0xcd, 0xdb, 0xf9, 0xe8, 0x19, 0x0e, 0xff, 0x09,
  0x29, 0xfd, 0xdf, 0xd9, 0xc7, 0xc8, 0xed, 0xf6, 0xf4, 0xf2, 0xed, 0x19,
  0x01, 0xfd, 0xde, 0xee, 0xeb, 0xcd, 0xda, 0xe7, 0xe4, 0xce, 0xdd, 0x0b,
  0x1d, 0xf5, 0xf9, 0xf8, 0xf8, 0xf7, 0xe6, 0xda, 0xcd, 0xe3, 0xc7, 0x11,
  0xf0, 0x09, 0xf0, 0x12, 0x00, 0xfa, 0xf3, 0xdb, 0xe3, 0xda, 0xe6, 0x0e,
  0xe0, 0xe8, 0xf9, 0x02, 0xfe, 0xe9, 0x0a, 0x04, 0x0d, 0x07, 0x1f, 0xed,
  0xf0, 0xeb, 0xca, 0x01, 0x0d, 0xfe, 0x25, 0x1d, 0xf9, 0xf9, 0xe8, 0x03,
  0xff, 0xf2, 0x0a, 0x1a, 0x03, 0x03, 0x16, 0xff, 0xed, 0x04, 0x26, 0x03,
  0x0f, 0x1b, 0x15, 0x11, 0x15, 0x0e, 0xee, 0xf1, 0x01, 0x00, 0xf4, 0x3b,
  0x4b, 0x21, 0x20, 0x3b, 0x22, 0x12, 0x30, 0x13, 0x0b, 0x2d, 0x10, 0x12,
  0x06, 0x00, 0xf0, 0x14, 0x39, 0x25, 0x13, 0x32, 0xcf, 0x02, 0xf5, 0x0c,
  0x0c, 0xfb, 0x30, 0xdc, 0x0c, 0x64, 0x12, 0x26, 0x44, 0x45, 0x33, 0x36,
  0x0e, 0x2b, 0x3d, 0xf9, 0x1c, 0xf0, 0x0a, 0x2b, 0x21, 0xf0, 0xde, 0xe3,
  0xd6, 0x15, 0xe6, 0xfa, 0xf7, 0xfb, 0x04, 0x13, 0x37, 0x51, 0x4c, 0x43,
  0x41, 0x1f, 0x35, 0x0e, 0x14, 0x15, 0x24, 0x06, 0x18, 0x2e, 0x1f, 0xf8,
  0x24, 0x36, 0x09, 0x32, 0x3a, 0xf5, 0x00, 0xf2, 0x04, 0x01, 0xff, 0x04,
  0xe3, 0xc8, 0x10, 0x1d, 0x0e, 0xf4, 0xe6, 0xf4, 0xe6, 0xb3, 0x12, 0x19,
  0xf6, 0xf2, 0x23, 0x18, 0x24, 0x01, 0xf4, 0xc4, 0x00, 0xf8, 0x0e, 0x00,
  0x09, 0xf9, 0xfd, 0x05, 0x0a, 0x06, 0x0b, 0xfb, 0xfa, 0xfe, 0xf3, 0xfe,
  0x13, 0x1d, 0x13, 0xf5, 0x07, 0x08, 0x04, 0x07, 0x09, 0x0d, 0x00, 0x0c,
  0x05, 0x07, 0x0a, 0x0a, 0x04, 0x03, 0xf9, 0xfb, 0x0c, 0x0f, 0x27, 0x2c,
  0x35, 0x2f, 0x4e, 0x49, 0x45, 0x37, 0x01, 0x2d, 0x57, 0x5d, 0x6f, 0x36,
  0x4a, 0x3a, 0x30, 0x15, 0xf5, 0xf3, 0xf9, 0xf3, 0x05, 0xff, 0x0e, 0x15,
  0x26, 0x26, 0x30, 0x3f, 0x61, 0x56, 0x4a, 0x31, 0x22, 0x00, 0x36, 0x2e,
  0x05, 0xff, 0x19, 0xf0, 0x2d, 0x4b, 0x3d, 0x2f, 0x38, 0xfa, 0x03, 0xf6,
  0x0a, 0x08, 0xe3, 0x00, 0xe7, 0x18, 0x2c, 0xe9, 0x05, 0x2a, 0xf9, 0x1c,
  0xeb, 0xf9, 0xff, 0x10, 0x09, 0xf4, 0x11, 0xf2, 0xd9, 0x26, 0x1b, 0x35,
  0x29, 0xde, 0xf7, 0xf7, 0xf4, 0xef, 0xdb, 0xc1, 0x11, 0x32, 0x29, 0x23,
  0x0f, 0x10, 0x00, 0xdc, 0xe8, 0xde, 0xf1, 0xf3, 0x06, 0x1e, 0x09, 0xff,
  0x07, 0x0a, 0x0c, 0x12, 0xf2, 0xe0, 0x1b, 0x3c, 0xff, 0xf9, 0x20, 0xe6,
  0x26, 0xe7, 0xf9, 0x01, 0x02, 0xdb, 0xd7, 0xe9, 0xd9, 0xf9, 0xfe, 0xf1,
  0xee, 0x01, 0x0b, 0x19, 0x05, 0x06, 0x03, 0xf7, 0x04, 0x15, 0x1c, 0x2c,
  0x05, 0xda, 0x13, 0xeb, 0x00, 0xd8, 0xe9, 0xf7, 0xe0, 0xd7, 0xda, 0xfe,
  0xf9, 0xe3, 0xf0, 0x10, 0x10, 0x18, 0x06, 0x14, 0x04, 0x1d, 0x08, 0x15,
  0xe9, 0x05, 0xf1, 0x13, 0xfd, 0xbd, 0x16, 0xe4, 0x1a, 0xd4, 0x15, 0xcd,
  0xcb, 0xe5, 0xdf, 0xe9, 0xf7, 0xf0, 0xfb, 0x08, 0x06, 0x07, 0xfd, 0xf6,
  0xfd, 0x20, 0x27, 0xff, 0x12, 0x0f, 0xfc, 0x0a, 0xdc, 0xe2, 0x20, 0xf7,
  0x15, 0xe2, 0xe3, 0xb5, 0xd2, 0xff, 0xed, 0xf7, 0xf8, 0xfa, 0x0d, 0x0a,
  0x12, 0xf9, 0xea, 0xf6, 0xdd, 0x06, 0xed, 0x08, 0xf9, 0xef, 0x12, 0xdf,
  0x0a, 0xbe, 0x08, 0x2d, 0x07, 0xdf, 0xd6, 0xd4, 0xe2, 0x01, 0xf7, 0xe8,
  0x03, 0x09, 0x03, 0x07, 0x08, 0xeb, 0xeb, 0x08, 0xe7, 0xea, 0xc5, 0xe7,
  0x17, 0xd7, 0xe7, 0xcd, 0xfe, 0xe1, 0x0b, 0x2f, 0x13, 0x11, 0x0a, 0xe5,
  0xd5, 0x0c, 0xf6, 0xf4, 0x00, 0x06, 0xf3, 0xc3, 0xc9, 0xd9, 0xe4, 0xfc,
  0xe7, 0xdf, 0xe8, 0xf9, 0xf9, 0xbb, 0xe3, 0xe5, 0x04, 0xf2, 0x2e, 0x14,
  0x04, 0x11, 0xfe, 0x00, 0xfe, 0x0d, 0x00, 0x03, 0x0c, 0xf0, 0xd4, 0x97,
  0xb4, 0xd2, 0xea, 0x19, 0x05, 0x03, 0xfe, 0xf1, 0xe0, 0xdf, 0xdd, 0xd5,
  0xf0, 0xe3, 0x2a, 0x14, 0x18, 0x03, 0x1c, 0x06, 0x07, 0x2a, 0x09, 0x00,
  0xdc, 0xc6, 0xb6, 0xaf, 0xdd, 0xfd, 0xe8, 0x14, 0x22, 0x3b, 0x31, 0x47,
  0x13, 0xb0, 0x81, 0xd1, 0xfa, 0xf0, 0xed, 0x02, 0xf7, 0x12, 0x0f, 0x1f,
  0x1b, 0x27, 0x28, 0xff, 0xeb, 0xe0, 0xe6, 0xf8, 0xeb, 0xe5, 0x04, 0x1b,
  0x2a, 0x3c, 0x4e, 0x3b, 0x04, 0xe5, 0xc9, 0x38, 0xf7, 0xd4, 0xdb, 0x08,
  0xfd, 0xfe, 0x03, 0x07, 0x24, 0x17, 0x36, 0x31, 0x0e, 0x00, 0xf3, 0x13,
  0x06, 0x00, 0x08, 0x09, 0x22, 0x37, 0x21, 0xd9, 0xcf, 0x39, 0x39, 0x23,
  0xf2, 0xdc, 0xe2, 0x44, 0x14, 0x00, 0xdd, 0x11, 0x1d, 0x1d, 0x3b, 0x2d,
  0x0e, 0x09, 0x16, 0x25, 0x15, 0xfa, 0x09, 0x17, 0x1b, 0x12, 0xf3, 0xcd,
  0xc2, 0x31, 0xf8, 0x3f, 0x02, 0xda, 0xfa, 0x1f, 0xfb, 0x13, 0x04, 0xfc,
  0x1b, 0x24, 0x37, 0x44, 0x15, 0x05, 0x27, 0x18, 0x31, 0x1a, 0xfb, 0x0f,
  0x17, 0x0c, 0xfc, 0xd0, 0xcc, 0x52, 0x43, 0x45, 0xf8, 0xe5, 0xf7, 0x05,
  0xf6, 0xea, 0xe6, 0x01, 0x27, 0x2f, 0x40, 0x21, 0x1c, 0x1a, 0x20, 0x23,
  0x20, 0x01, 0xe2, 0xf0, 0xea, 0x04, 0xf5, 0xe4, 0xca, 0x3c, 0x0c, 0x5b,
  0x0d, 0xe5, 0xcd, 0x0d, 0x20, 0xd3, 0x05, 0x2c, 0x16, 0x2c, 0x1b, 0x00,
  0x05, 0x0b, 0x1e, 0x13, 0xfa, 0x02, 0x05, 0xf7, 0xf4, 0x04, 0xf9, 0x09,
  0xf7, 0x39, 0xfd, 0x37, 0xf8, 0xf8, 0xd1, 0xe2, 0xf1, 0xd2, 0xee, 0x18,
  0x0d, 0x0f, 0x29, 0x0c, 0x07, 0x12, 0x14, 0x11, 0xff, 0xf7, 0xf9, 0x0b,
  0x06, 0x08, 0x28, 0x22, 0xda, 0x10, 0x43, 0x11, 0x03, 0x12, 0x23, 0xfe,
  0xd9, 0xf3, 0xde, 0x12, 0x0a, 0x0f, 0x1b, 0x13, 0xfd, 0xe4, 0x11, 0x18,
  0xf4, 0xf5, 0x03, 0x02, 0xfd, 0x10, 0x29, 0x16, 0x20, 0x11, 0x10, 0xde,
  0xf5, 0x19, 0x1d, 0x05, 0x16, 0x06, 0xf7, 0xf1, 0x1a, 0x18, 0x21, 0x18,
  0x22, 0x1c, 0x1c, 0x01, 0x00, 0x17, 0x0a, 0x08, 0xfd, 0x16, 0x28, 0x36,
  0x03, 0xe5, 0xf3, 0xf4, 0xea, 0xf8, 0x1d, 0x36, 0x15, 0x10, 0x05, 0xf6,
  0x03, 0xfa, 0x27, 0x0c, 0x12, 0xf7, 0xea, 0xfd, 0x06, 0xf4, 0x02, 0x05,
  0x04, 0xfd, 0x11, 0xf3, 0x08, 0xfe, 0xbd, 0x06, 0x01, 0xf9, 0x0e, 0xfb,
  0xe7, 0xe0, 0xec, 0xfc, 0x03, 0xef, 0xea, 0xdd, 0xf0, 0x02, 0xe3, 0xf6,
  0xf5, 0xea, 0xfc, 0xff, 0x08, 0xfa, 0x2b, 0x1d, 0x18, 0x0a, 0xb2, 0x0a,
  0x0d, 0x0b, 0xe9, 0xb2, 0xe8, 0xe2, 0xe4, 0xf8, 0x1c, 0xfd, 0xe7, 0xed,
  0xe4, 0xdc, 0xe5, 0xdf, 0xe8, 0xd0, 0xf3, 0x00, 0x07, 0xcb, 0xfc, 0x2a,
  0x0a, 0x24, 0xf7, 0xfd, 0x0a, 0x06, 0x29, 0xaf, 0xf8, 0xe4, 0xf3, 0xf3,
  0xed, 0xe4, 0xe5, 0xf9, 0xf7, 0x12, 0x17, 0xf2, 0xfc, 0xe8, 0x0b, 0x31,
  0x22, 0xf6, 0xdf, 0xf4, 0xd7, 0x29, 0x09, 0x0a, 0x05, 0x06, 0x00, 0x24,
  0x2b, 0x24, 0x0e, 0xfe, 0x14, 0xf6, 0xcf, 0x01, 0x1f, 0x3b, 0x29, 0xf1,
  0x0c, 0x0e, 0x40, 0x46, 0x29, 0x14, 0x0d, 0x44, 0x22, 0xf0, 0x01, 0x0c,
  0xf5, 0x00, 0x07, 0x03, 0xe8, 0xd6, 0x29, 0x19, 0x2a, 0x3a, 0x21, 0x28,
  0x1e, 0x08, 0x2d, 0xff, 0x17, 0x11, 0x2a, 0x50, 0x22, 0xe7, 0x04, 0xf2,
  0x06, 0xf9, 0x01, 0x04, 0xfc, 0xf8, 0x06, 0x04, 0x00, 0x05, 0x02, 0x05,
  0x0b, 0xfc, 0x06, 0xf7, 0xfb, 0x0a, 0xf5, 0x02, 0x08, 0x01, 0x03, 0xf9,
  0xfb, 0x00, 0xfe, 0xf6, 0xfc, 0x08, 0x02, 0x02, 0x08, 0x02, 0x0b, 0xf6,
  0x02, 0x11, 0x20, 0x26, 0x29, 0x2a, 0x22, 0x2f, 0x4f, 0x6d, 0x4f, 0x57,
  0x7f, 0x51, 0x4a, 0x1d, 0x1d, 0xfd, 0x16, 0x10, 0xfe, 0x0a, 0x09, 0x08,
  0x06, 0xfc, 0x01, 0x0c, 0x22, 0x24, 0x16, 0x2d, 0xf9, 0xf3, 0xf1, 0x0b,
  0xe7, 0x36, 0x50, 0x47, 0x5f, 0x47, 0x4f, 0x43, 0x2a, 0x09, 0x25, 0x24,
  0xfe, 0x05, 0xfb, 0x0a, 0x02, 0xff, 0x0c, 0x2d, 0x2e, 0xdd, 0xcf, 0xd2,
  0xe2, 0xf9, 0xeb, 0xca, 0xec, 0x43, 0x39, 0x2f, 0x2c, 0x2b, 0x3e, 0x48,
  0x37, 0x19, 0xfa, 0x04, 0x35, 0x14, 0x03, 0x01, 0x05, 0xf6, 0xe6, 0x1c,
  0xfd, 0xe5, 0xde, 0xef, 0xfb, 0x07, 0x09, 0x05, 0x05, 0x1f, 0x05, 0x23,
  0x04, 0xf6, 0x05, 0x1d, 0x0c, 0x2c, 0x1c, 0x0e, 0xf3, 0xf1, 0x22, 0xfc,
  0xf7, 0x06, 0xe9, 0xf1, 0xc7, 0x0b, 0x06, 0x00, 0xfb, 0xfa, 0x07, 0x0f,
  0x05, 0x23, 0x10, 0x1b, 0x05, 0x17, 0x1b, 0x18, 0x16, 0x19, 0x0e, 0x0a,
  0xfe, 0xf7, 0x06, 0xfe, 0xfa, 0xf7, 0x17, 0xe5, 0xf4, 0x23, 0xfe, 0x00,
  0x01, 0xee, 0xff, 0x0b, 0x08, 0x0c, 0x0b, 0x21, 0x1b, 0x13, 0x2a, 0x1d,
  0x16, 0x11, 0x1a, 0xea, 0x14, 0x2b, 0x10, 0xfc, 0xfe, 0xed, 0xff, 0xd6,
  0xdc, 0xec, 0xf7, 0x11, 0x05, 0x11, 0x13, 0x20, 0x23, 0x0c, 0x1a, 0x14,
  0x12, 0x13, 0x11, 0x14, 0x29, 0x16, 0xf4, 0xdf, 0x1c, 0x3c, 0x1b, 0x09,
  0x09, 0x03, 0x15, 0xd9, 0xce, 0xe4, 0x00, 0x02, 0x0f, 0x16, 0x07, 0x22,
  0x24, 0x13, 0x04, 0xfb, 0xe2, 0xe0, 0xe3, 0xe7, 0x05, 0x09, 0x02, 0xfe,
  0x14, 0x0e, 0x1d, 0x01, 0x00, 0xf8, 0xf4, 0xfe, 0xf6, 0xe7, 0xea, 0x0f,
  0x01, 0x01, 0x17, 0x2c, 0x19, 0x05, 0xc7, 0xb5, 0x9a, 0xa3, 0xa7, 0x97,
  0xcc, 0xbb, 0xd1, 0xd4, 0x01, 0xea, 0x04, 0x15, 0xfa, 0x11, 0xf6, 0x09,
  0x11, 0xf7, 0xe7, 0x00, 0xfa, 0x03, 0x06, 0x0a, 0x15, 0xf4, 0xb5, 0xc5,
  0xc7, 0xc6, 0xa8, 0x9d, 0xa8, 0xa1, 0x98, 0x94, 0xc7, 0xb9, 0xf0, 0x18,
  0x0a, 0x13, 0x2c, 0xc3, 0xda, 0xf0, 0xf3, 0x04, 0xe7, 0xe7, 0xfd, 0xf4,
  0xea, 0xe3, 0xda, 0xf3, 0x0d, 0x01, 0x09, 0xee, 0xd3, 0xc3, 0xa4, 0xa6,
  0xaf, 0xaa, 0xec, 0x14, 0x16, 0x28, 0x2c, 0xd3, 0xed, 0x06, 0x03, 0xf6,
  0x06, 0xf3, 0xfd, 0x01, 0xeb, 0xda, 0xe8, 0x03, 0xff, 0x02, 0x2a, 0x07,
  0x0b, 0xdf, 0xd9, 0xe8, 0xa8, 0x99, 0xf1, 0x0c, 0xf8, 0x1b, 0x2b, 0xd0,
  0x19, 0xf0, 0x0a, 0x0a, 0xf9, 0xf4, 0xf6, 0xfe, 0xf6, 0xe8, 0xf1, 0x04,
  0xf5, 0xfc, 0xf5, 0x00, 0x07, 0xed, 0xea, 0xec, 0xf0, 0xc0, 0xd0, 0xfd,
  0x21, 0x17, 0x24, 0xcf, 0x20, 0x07, 0xf5, 0xfa, 0x00, 0xfe, 0x09, 0xe5,
  0xf7, 0xef, 0xfe, 0x10, 0xfc, 0xfd, 0x0e, 0x01, 0x14, 0x03, 0x20, 0x15,
  0x2a, 0xed, 0xc5, 0xf9, 0x10, 0x17, 0xf6, 0xd4, 0xf6, 0x08, 0xed, 0xec,
  0x04, 0x04, 0x02, 0xef, 0xfc, 0xe9, 0xf4, 0x05, 0x07, 0x19, 0x18, 0x05,
  0x04, 0x08, 0x0a, 0x09, 0x1f, 0x1c, 0xdc, 0xf2, 0x0d, 0x1c, 0x0a, 0xfe,
  0xf9, 0xf5, 0xd7, 0xde, 0xf8, 0xef, 0xf3, 0x0b, 0xf2, 0xf1, 0xfd, 0x0e,
  0xff, 0x07, 0x0f, 0xf8, 0xfb, 0x03, 0x03, 0xfa, 0x07, 0x03, 0xc8, 0xf0,
  0x0a, 0x0d, 0xf8, 0x10, 0xcb, 0xef, 0xf4, 0xef, 0xe6, 0xee, 0xf2, 0xe7,
  0xe1, 0xc3, 0xfc, 0x15, 0xfb, 0x05, 0xfe, 0xe7, 0xf8, 0xea, 0xf9, 0xed,
  0x0c, 0xea, 0xbf, 0xe8, 0x03, 0xe4, 0xe5, 0x0a, 0xf4, 0xf5, 0xdf, 0xe4,
  0xf0, 0xdb, 0xc7, 0xc6, 0xbc, 0xaf, 0x11, 0x26, 0x09, 0x0c, 0x01, 0xfd,
  0xf7, 0x10, 0x04, 0x04, 0x08, 0xe9, 0xbf, 0xd9, 0x08, 0xfb, 0x10, 0x0b,
  0x07, 0xdd, 0xf2, 0xef, 0xf2, 0xf4, 0xed, 0xfb, 0xe5, 0xcc, 0x1c, 0x3f,
  0x1e, 0x13, 0x0b, 0x08, 0x19, 0x11, 0x0e, 0x1e, 0x11, 0xff, 0xc9, 0xea,
  0x09, 0xee, 0x06, 0x0d, 0x0b, 0xf8, 0xe3, 0xde, 0xf5, 0x17, 0x02, 0x03,
  0x03, 0xf5, 0x31, 0x36, 0x1f, 0x24, 0x1b, 0x20, 0x10, 0x0a, 0x26, 0x0d,
  0x0b, 0x19, 0xe6, 0x11, 0x04, 0xec, 0xd2, 0xfd, 0x31, 0x33, 0x15, 0x01,
  0x16, 0x05, 0x13, 0x04, 0x17, 0x10, 0x28, 0x24, 0x27, 0x16, 0x23, 0x10,
  0x19, 0x11, 0x10, 0x10, 0x06, 0x21, 0x00, 0xff, 0x04, 0xfc, 0xcc, 0xea,
  0x20, 0x16, 0x06, 0x00, 0x1a, 0x0b, 0xf2, 0xf1, 0x04, 0x0f, 0x14, 0x1d,
  0x1b, 0x11, 0x0b, 0x07, 0x00, 0x00, 0xed, 0x09, 0xf1, 0x14, 0x19, 0xfb,
  0xfe, 0x01, 0xcd, 0xe6, 0xea, 0xf3, 0x12, 0xe6, 0xdb, 0xe6, 0xef, 0xe6,
  0x02, 0xf9, 0x11, 0x11, 0x09, 0x08, 0xe9, 0x00, 0x0b, 0x03, 0xe2, 0xeb,
  0xf1, 0x05, 0x1b, 0x02, 0xff, 0xf9, 0xe4, 0xfb, 0xd2, 0xe5, 0x09, 0x03,
  0xef, 0xed, 0xee, 0xec, 0x06, 0x01, 0xef, 0x11, 0xfd, 0x22, 0x05, 0xee,
  0x19, 0x0b, 0xf0, 0xe9, 0xe4, 0xeb, 0x07, 0x04, 0x05, 0x09, 0xeb, 0x0f,
  0xf0, 0xe6, 0xfd, 0xf0, 0xfd, 0x06, 0xe8, 0x0b, 0x1e, 0x15, 0xf8, 0xf8,
  0x01, 0x08, 0x08, 0x1a, 0x11, 0x2e, 0x3e, 0x1a, 0x1a, 0x13, 0x03, 0xf8,
  0xf6, 0x01, 0x02, 0x04, 0xfe, 0x02, 0xfb, 0x06, 0x23, 0x11, 0x28, 0x33,
  0x01, 0x29, 0x51, 0x2d, 0x29, 0x0c, 0x1f, 0x3d, 0x3b, 0x32, 0x1e, 0x1b,
  0x02, 0xfa, 0xfd, 0xff, 0xfa, 0xf8, 0x04, 0x04, 0x02, 0xf9, 0x02, 0x05,
  0xf9, 0x2e, 0x29, 0x30, 0x3a, 0x2d, 0x17, 0xf9, 0x02, 0x2e, 0x10, 0x0a,
  0x22, 0x22, 0x1f, 0x05, 0x06, 0xfa, 0xf9, 0xf5, 0x02, 0xf9, 0xf7, 0x06,
  0x0d, 0xfb, 0x0a, 0x01, 0x06, 0xfb, 0x04, 0x0d, 0xeb, 0xec, 0x0f, 0x05,
  0xf5, 0xfc, 0x01, 0xfd, 0xff, 0xf5, 0xfb, 0x03, 0xf6, 0xf5, 0x01, 0xfe,
  0xff, 0x0a, 0x02, 0xfb, 0x03, 0x16, 0x09, 0x16, 0x04, 0xf4, 0xc7, 0xea,
  0xee, 0xf6, 0xe9, 0x07, 0x4c, 0x35, 0xd7, 0xe7, 0xf1, 0xf7, 0x1f, 0x20,
  0x06, 0x05, 0x05, 0x0d, 0xf6, 0xf3, 0x04, 0xfd, 0x1f, 0x14, 0x12, 0x05,
  0x25, 0x35, 0x3b, 0x24, 0x2d, 0xe0, 0x07, 0x0e, 0x09, 0x12, 0x08, 0x00,
  0xeb, 0xf1, 0xc8, 0x38, 0x3a, 0x1f, 0xff, 0x06, 0x02, 0xf9, 0xe9, 0x2c,
  0x33, 0x27, 0x0a, 0xed, 0xed, 0x17, 0x0f, 0x30, 0x1f, 0xea, 0xe3, 0xe8,
  0xe7, 0x03, 0xee, 0x0a, 0x24, 0x29, 0x09, 0xf5, 0x18, 0x1b, 0x1e, 0xf9,
  0x03, 0x0d, 0xed, 0xf5, 0xe9, 0x0a, 0x1c, 0xfc, 0x19, 0x27, 0x0c, 0x0b,
  0x06, 0xd6, 0xc2, 0xea, 0xdc, 0xeb, 0x06, 0x01, 0x16, 0xd0, 0xbb, 0xed,
  0x0a, 0xf0, 0xda, 0xc5, 0xfc, 0xf3, 0x21, 0x2b, 0x31, 0x2b, 0x3f, 0xf5,
  0xf9, 0x14, 0xf5, 0xeb, 0xd1, 0xee, 0x0b, 0x0c, 0x07, 0x03, 0xfb, 0xee,
  0x17, 0xeb, 0xf1, 0xf1, 0x18, 0xe7, 0xfe, 0xe7, 0xf6, 0x03, 0x04, 0x0d,
  0x36, 0x54, 0x1b, 0x0e, 0xf2, 0xdf, 0xbf, 0xf9, 0xf3, 0xec, 0xf9, 0xff,
  0x01, 0xfc, 0xf4, 0xef, 0xd1, 0xf4, 0xf7, 0xfb, 0x10, 0x1a, 0x0c, 0xe2,
  0x0a, 0xca, 0x0b, 0xe5, 0x31, 0x06, 0x04, 0xf2, 0x0a, 0xdd, 0xe5, 0xf0,
  0xc3, 0xd7, 0xdc, 0xf8, 0x06, 0xf5, 0xd6, 0xd4, 0xe5, 0xf7, 0xea, 0xd8,
  0x12, 0x0e, 0xf2, 0x27, 0x33, 0xd2, 0xef, 0xdc, 0xa9, 0xcc, 0xf2, 0xe5,
  0xe9, 0xf7, 0xf1, 0xff, 0xef, 0xf4, 0xe1, 0xff, 0x01, 0xf7, 0xf7, 0x08,
  0x04, 0xed, 0xfa, 0xfa, 0x20, 0x24, 0xca, 0x0f, 0xe9, 0xc0, 0xec, 0x15,
  0xb5, 0xd0, 0xdd, 0xe4, 0xcf, 0xeb, 0x15, 0x12, 0x0b, 0xfa, 0xe3, 0x15,
  0x06, 0x19, 0x1d, 0x06, 0x16, 0xeb, 0xe1, 0xc3, 0x28, 0x0d, 0x07, 0xc6,
  0xea, 0xe7, 0xef, 0x1b, 0xfb, 0x0c, 0xff, 0x03, 0xea, 0xfa, 0x05, 0xf2,
  0x03, 0xfe, 0x07, 0x19, 0x1c, 0x28, 0xfb, 0xfb, 0xff, 0xfe, 0xde, 0xfe,
  0x1e, 0x38, 0x0e, 0xa7, 0xeb, 0x1d, 0xf5, 0xd9, 0xc7, 0xf0, 0x21, 0x11,
  0xff, 0xee, 0xd6, 0xf2, 0xf3, 0xf5, 0xea, 0xea, 0x03, 0x0c, 0xed, 0x10,
  0x06, 0x17, 0xf6, 0x0a, 0x04, 0x4c, 0xdc, 0xbc, 0xf1, 0xf6, 0x01, 0xa4,
  0xb5, 0xce, 0x0a, 0xfb, 0xf2, 0xfd, 0xfe, 0xf6, 0x15, 0x25, 0xe9, 0xe5,
  0xf3, 0xe1, 0xeb, 0x01, 0x02, 0xe4, 0xf0, 0xc3, 0xe3, 0x35, 0xf1, 0xd8,
  0x05, 0xdf, 0xb4, 0xcd, 0xc3, 0xd4, 0x12, 0x19, 0x20, 0x05, 0x27, 0x27,
  0x3d, 0x3c, 0xfb, 0xe5, 0xfd, 0xff, 0xf4, 0xed, 0xd4, 0xc1, 0x00, 0x00,
  0xff, 0x00, 0x34, 0x47, 0x04, 0xf3, 0xe9, 0x0f, 0x09, 0x05, 0x16, 0x44,
  0x2c, 0x2f, 0x2c, 0x26, 0x4b, 0x2f, 0x0e, 0x03, 0x25, 0x07, 0xff, 0xe1,
  0xf0, 0xd7, 0x27, 0x22, 0x45, 0x4d, 0x49, 0x3c, 0x0b, 0xf6, 0x32, 0x30,
  0x2d, 0x34, 0x10, 0x25, 0x17, 0x1a, 0x25, 0x30, 0x38, 0x20, 0xe8, 0x37,
  0x23, 0x33, 0x0e, 0x05, 0xc8, 0xe2, 0x04, 0x15, 0x5b, 0x53, 0x2c, 0x59,
  0xfb, 0xf4, 0xf7, 0x0c, 0x00, 0x23, 0x19, 0x2e, 0x10, 0x0d, 0x28, 0x33,
  0x1d, 0x0c, 0x10, 0x1e, 0x37, 0x46, 0x07, 0xf2, 0x10, 0x25, 0x38, 0x0d,
  0x1c, 0x7f, 0x56, 0x4b, 0xfb, 0xf4, 0xef, 0xfc, 0x10, 0x24, 0x1c, 0x1f,
  0x08, 0x21, 0x26, 0x2d, 0x0a, 0x03, 0x0b, 0x2f, 0x29, 0x13, 0x23, 0xe1,
  0xf5, 0x19, 0x23, 0x07, 0xdb, 0x23, 0x00, 0x6b, 0xd5, 0xf9, 0xbf, 0x28,
  0x26, 0x20, 0x23, 0x15, 0x1e, 0x1e, 0x05, 0x12, 0x20, 0x0e, 0x32, 0x39,
  0x30, 0x06, 0xfb, 0x07, 0xff, 0x04, 0x08, 0x07, 0x0f, 0x11, 0xe1, 0x6b,
  0xeb, 0xe4, 0xc7, 0x0c, 0x22, 0x2a, 0xf8, 0x02, 0x02, 0x05, 0x15, 0x2b,
  0x10, 0x28, 0x34, 0x57, 0x15, 0x08, 0x1f, 0xfd, 0x02, 0x07, 0x0e, 0x1e,
  0xf6, 0x1b, 0x37, 0x41, 0x0a, 0x19, 0x2b, 0x0f, 0x0d, 0xea, 0xe4, 0xfc,
  0xf8, 0xfc, 0x0f, 0x22, 0xed, 0xe7, 0xed, 0xec, 0xe8, 0x03, 0x26, 0x17,
  0xef, 0x08, 0x0e, 0xfe, 0x12, 0x3a, 0x08, 0xef, 0xfe, 0x19, 0x1d, 0x1e,
  0x0c, 0x00, 0xd9, 0xfa, 0xe6, 0xf5, 0xea, 0xf0, 0xe5, 0xd7, 0xb9, 0xb9,
  0xdc, 0xf8, 0xfd, 0xfa, 0xe9, 0x14, 0x01, 0xd8, 0xf2, 0x4c, 0x38, 0x06,
  0xfd, 0x00, 0x19, 0x0f, 0xe6, 0xf0, 0xf4, 0xe4, 0xd2, 0xed, 0xf4, 0xc9,
  0xd8, 0xd2, 0x9d, 0xb7, 0xc7, 0xcf, 0xef, 0xc6, 0xe9, 0x01, 0xe0, 0xef,
  0x0c, 0x18, 0x18, 0xf9, 0x0f, 0x0e, 0x32, 0xdf, 0xe0, 0xeb, 0xdf, 0xfe,
  0xd9, 0xd6, 0xef, 0xe5, 0xb9, 0xbf, 0xed, 0xcd, 0xd4, 0xa9, 0xc0, 0xba,
  0xb1, 0xc4, 0xf0, 0xe4, 0xfa, 0x10, 0x26, 0xfd, 0x05, 0xfc, 0x23, 0xbb,
  0xf8, 0xe3, 0xdf, 0xf6, 0xed, 0xe0, 0xb3, 0xac, 0xce, 0xc9, 0xeb, 0xd3,
  0xab, 0xcd, 0xf9, 0xf2, 0xda, 0xf2, 0xec, 0x18, 0x2b, 0x2c, 0x26, 0x0f,
  0x09, 0x00, 0x12, 0xd8, 0x31, 0x2b, 0xc3, 0x8f, 0xa7, 0xa5, 0xb2, 0xe5,
  0xe5, 0xf8, 0xea, 0xf8, 0xf2, 0xd7, 0xfd, 0xc4, 0xe5, 0x01, 0xf7, 0x4b,
  0x38, 0x29, 0x14, 0xff, 0xf5, 0xf3, 0xf4, 0x1c, 0x40, 0x11, 0x10, 0xe8,
  0xd6, 0xc1, 0xb3, 0x14, 0x2d, 0xfc, 0x00, 0x35, 0x31, 0x2b, 0x00, 0xf2,
  0x27, 0xea, 0xb5, 0xf0, 0xc7, 0x06, 0x06, 0x00, 0x0f, 0xf4, 0x0c, 0x06,
  0x03, 0xec, 0x10, 0x18, 0x0f, 0x2d, 0xd2, 0x11, 0x26, 0x07, 0xfe, 0x22,
  0xef, 0xc8, 0xe7, 0x01, 0x27, 0xf1, 0xc7, 0xdb, 0x03, 0xf6, 0x06, 0xfe,
  0xf4, 0x0c, 0xff, 0x05, 0xf3, 0xf3, 0x0b, 0xfd, 0x08, 0x09, 0x03, 0xfb,
  0x11, 0x19, 0x01, 0x05, 0xfd, 0xf5, 0x08, 0xf9, 0x00, 0xfc, 0x0b, 0xf8,
  0x07, 0x04, 0xfe, 0x01, 0x08, 0xfa, 0x07, 0x01, 0xfd, 0x0e, 0x26, 0x27,
  0x2a, 0x41, 0x46, 0x0d, 0x18, 0x36, 0xdd, 0xda, 0xe0, 0xf4, 0x57, 0x46,
  0x3b, 0x2f, 0x2d, 0x2b, 0x07, 0xfd, 0x09, 0xf6, 0xf2, 0xf4, 0x18, 0xe3,
  0xde, 0x32, 0x3a, 0x13, 0x31, 0x14, 0x09, 0x2a, 0x33, 0xfa, 0x34, 0x21,
  0x1e, 0x29, 0x03, 0x0d, 0x0d, 0x11, 0x1f, 0x0a, 0x17, 0x05, 0xfb, 0xf4,
  0xf5, 0x0c, 0xf7, 0xe5, 0xf5, 0x45, 0x54, 0x4e, 0x3f, 0x16, 0x0e, 0x4b,
  0x1f, 0x06, 0x25, 0x22, 0x15, 0xfc, 0xf7, 0xf0, 0xf5, 0xfd, 0x16, 0x09,
  0xeb, 0xfa, 0xfc, 0xfa, 0x08, 0x08, 0x05, 0x3a, 0x29, 0x3c, 0x27, 0x06,
  0x27, 0x05, 0x0b, 0xfd, 0x14, 0xf4, 0x0b, 0xf7, 0xfa, 0xf3, 0xcf, 0xc0,
  0xc8, 0xf8, 0xfe, 0xf3, 0xea, 0xee, 0xdb, 0xf6, 0xf3, 0xff, 0xfd, 0xfb,
  0x1d, 0x12, 0x06, 0x1b, 0x35, 0x31, 0x08, 0xf6, 0xf6, 0xf0, 0xe8, 0xe3,
  0xf6, 0xed, 0xd5, 0xcb, 0xcd, 0xb9, 0xb4, 0xe2, 0xd9, 0xeb, 0xd9, 0x02,
  0x02, 0x21, 0x17, 0x2e, 0x45, 0x1d, 0x13, 0x14, 0x11, 0x2d, 0x04, 0xfa,
  0xe4, 0xe0, 0xf5, 0xf8, 0x0c, 0xfa, 0xea, 0xe5, 0xe8, 0xf8, 0xcb, 0xc8,
  0xc3, 0xbb, 0xe3, 0xce, 0x0d, 0x36, 0x50, 0x3c, 0x24, 0x06, 0x0b, 0x04,
  0xfe, 0x0e, 0xe9, 0x04, 0xf9, 0x02, 0xfd, 0xf1, 0xe9, 0x00, 0xf4, 0xdb,
  0xe4, 0xe9, 0xd8, 0xbc, 0xc9, 0xd1, 0xed, 0xa9, 0xd7, 0x3f, 0x71, 0x2e,
  0x50, 0xfd, 0xfa, 0x09, 0x17, 0x0a, 0xff, 0x25, 0x18, 0x18, 0x0e, 0xff,
  0xef, 0xd8, 0xe6, 0xe6, 0xdf, 0x0d, 0x03, 0xd3, 0xdb, 0xf1, 0x02, 0xce,
  0x21, 0x49, 0x29, 0x0d, 0x65, 0x12, 0x01, 0x0e, 0x09, 0x20, 0x06, 0x23,
  0x50, 0x22, 0x1d, 0xfb, 0xed, 0xf1, 0xfb, 0xe9, 0x1a, 0x13, 0x22, 0x08,
  0xec, 0xe3, 0xd9, 0x2a, 0x20, 0x32, 0x03, 0x14, 0x15, 0x07, 0xf1, 0x16,
  0x0d, 0x29, 0x19, 0x1b, 0x10, 0x09, 0xea, 0xe4, 0xea, 0xf7, 0xf7, 0x00,
  0x2f, 0x1b, 0x16, 0x0a, 0xe1, 0xe6, 0xbd, 0x21, 0x2c, 0x04, 0x49, 0x1b,
  0xfe, 0x24, 0xfb, 0x14, 0x23, 0x36, 0x22, 0x15, 0x1d, 0xee, 0xed, 0xf5,
  0x07, 0x0c, 0x1c, 0x12, 0x1d, 0x0d, 0x1f, 0x0d, 0xb2, 0x9b, 0x81, 0x0c,
  0x1e, 0x57, 0x4a, 0xfe, 0xfb, 0x28, 0xfb, 0x0d, 0x36, 0x27, 0x1c, 0xfe,
  0xd2, 0xd0, 0xeb, 0x19, 0x3c, 0x30, 0x37, 0x08, 0x0c, 0x14, 0x13, 0x1e,
  0xee, 0xcb, 0xda, 0x26, 0xd5, 0x3c, 0x73, 0xf1, 0x0f, 0x19, 0x13, 0xff,
  0x22, 0x05, 0x03, 0xe5, 0xc5, 0xf3, 0x17, 0x38, 0x49, 0x27, 0x2a, 0x02,
  0x12, 0x13, 0x0f, 0x1e, 0x11, 0xd3, 0xe7, 0xe7, 0xd8, 0x4e, 0x40, 0x13,
  0xec, 0x09, 0x06, 0xea, 0xf7, 0xee, 0x01, 0xdd, 0xf2, 0xf7, 0x0a, 0x3e,
  0x42, 0x12, 0xfc, 0x0a, 0xfe, 0x03, 0x12, 0x1d, 0xe7, 0xd0, 0xc3, 0xee,
  0xed, 0x34, 0x0a, 0x31, 0xd8, 0xec, 0x11, 0xef, 0xe3, 0xdd, 0x10, 0x0e,
  0xe8, 0x06, 0x24, 0x45, 0x19, 0x29, 0x06, 0x11, 0x0a, 0x18, 0x33, 0x13,
  0xbd, 0xf6, 0xfd, 0xd7, 0x1f, 0x30, 0xed, 0x1c, 0xf5, 0xf4, 0x1c, 0x0e,
  0xfc, 0x06, 0x14, 0x23, 0x15, 0x19, 0x00, 0x04, 0x02, 0x0e, 0x15, 0x1a,
  0x05, 0x12, 0x1d, 0x01, 0xe6, 0xf7, 0xd0, 0xca, 0xf9, 0x1a, 0x16, 0x01,
  0xe6, 0xf6, 0xf1, 0x0f, 0x04, 0x04, 0xfd, 0xf0, 0xe1, 0xfa, 0xf1, 0xed,
  0x00, 0x0c, 0x00, 0x09, 0xf9, 0xf8, 0xfc, 0xf2, 0xd3, 0x1c, 0xe6, 0xca,
  0x18, 0xfc, 0x40, 0xf7, 0x17, 0xfe, 0xe7, 0x01, 0xec, 0xd6, 0xc4, 0xea,
  0x08, 0x19, 0xed, 0xdc, 0x0c, 0x0b, 0xf6, 0xef, 0xf9, 0x07, 0xf9, 0xe3,
  0xbc, 0x26, 0x2c, 0xcc, 0x09, 0x29, 0x3c, 0xde, 0x1a, 0xfb, 0xdb, 0xe8,
  0xf8, 0xec, 0xdf, 0x01, 0x0b, 0xf2, 0x0a, 0xf6, 0xfd, 0x04, 0xf3, 0xff,
  0xea, 0xfe, 0xe1, 0xb3, 0x99, 0xf4, 0xf5, 0xd9, 0x05, 0xf8, 0x23, 0xf0,
  0xf1, 0xfc, 0xd6, 0xfa, 0xf5, 0xff, 0xec, 0xfc, 0xf8, 0x02, 0x21, 0xf9,
  0xfe, 0xee, 0xd3, 0xe7, 0xd6, 0xe9, 0xdc, 0xbd, 0xac, 0xd4, 0x0e, 0xf5,
  0x00, 0x01, 0x13, 0xe7, 0xdb, 0xe8, 0xd4, 0xee, 0x0e, 0xfb, 0xea, 0xf7,
  0x04, 0x15, 0x05, 0x07, 0x07, 0xe8, 0xf2, 0xfa, 0xf1, 0xd8, 0xc1, 0xb6,
  0xde, 0xd7, 0xdb, 0xf3, 0x05, 0xf7, 0x39, 0xde, 0x17, 0xe0, 0xd0, 0xe6,
  0xe2, 0xe8, 0xfe, 0xd7, 0x04, 0xf0, 0xee, 0x0b, 0xfe, 0xe9, 0xf3, 0xf8,
  0xde, 0xef, 0xd3, 0xac, 0xd9, 0xe2, 0xe9, 0xf4, 0xfd, 0xfc, 0x01, 0x08,
  0x33, 0x12, 0x3a, 0x0d, 0xc6, 0xd1, 0xe1, 0xd8, 0xc7, 0xde, 0xfc, 0xeb,
  0xe9, 0xf0, 0x21, 0x1c, 0xee, 0xea, 0xb0, 0xbc, 0xef, 0x05, 0xfb, 0x01,
  0x05, 0x02, 0x3b, 0x33, 0x44, 0x46, 0x65, 0x3c, 0x0a, 0xf7, 0x04, 0x1c,
  0xea, 0xed, 0xfe, 0x06, 0x33, 0x25, 0x06, 0x20, 0x29, 0x0d, 0xea, 0xc4,
  0xb6, 0x27, 0xfa, 0x09, 0x00, 0xfb, 0xe9, 0xf7, 0x54, 0x52, 0x3b, 0x30,
  0x2b, 0x16, 0x41, 0x46, 0x33, 0x23, 0x32, 0x1b, 0x2a, 0x15, 0x38, 0x15,
  0x15, 0x00, 0xde, 0xd4, 0xbf, 0x01, 0xf5, 0xff, 0x03, 0xf4, 0x08, 0xe7,
  0xe8, 0xed, 0x12, 0x46, 0x1e, 0x1d, 0x33, 0xff, 0x08, 0x1e, 0x28, 0x1f,
  0x11, 0x0a, 0x2e, 0x36, 0x0f, 0x1e, 0x16, 0xf8, 0xf2, 0x0d, 0x06, 0x0d,
  0xfe, 0x0c, 0xf9, 0xf4, 0x1b, 0x36, 0xf4, 0xde, 0xe8, 0xf0, 0x28, 0x02,
  0xeb, 0x2a, 0xf6, 0x08, 0x1a, 0x52, 0x31, 0x2d, 0x05, 0x18, 0x37, 0x31,
  0xfa, 0xfd, 0x04, 0xfb, 0xf7, 0x07, 0x07, 0x08, 0xfa, 0xf8, 0xfa, 0xfe,
  0xff, 0xfc, 0x02, 0x00, 0xf6, 0xfe, 0x07, 0xf9, 0xfe, 0xf7, 0x08, 0xff,
  0xfc, 0x08, 0x06, 0x01, 0x03, 0x00, 0x03, 0x04, 0x06, 0x04, 0xfa, 0xff,
  0x02, 0x01, 0xfe, 0xf4, 0x02, 0xf8, 0xff, 0xf6, 0xf1, 0xf3, 0x13, 0xed,
  0xde, 0xd3, 0xdf, 0xf0, 0xf8, 0x01, 0xfb, 0xfe, 0x03, 0x08, 0x06, 0x06,
  0x06, 0x05, 0x04, 0xeb, 0xef, 0xf9, 0xec, 0xeb, 0xec, 0xe7, 0xeb, 0xf8,
  0x0b, 0xe3, 0xcf, 0xde, 0xc5, 0xf0, 0xfc, 0x06, 0xe3, 0xd9, 0xe3, 0xe6,
  0xe3, 0xf1, 0xfd, 0x01, 0x09, 0x03, 0x1a, 0xf2, 0xf4, 0xde, 0xea, 0xec,
  0xd9, 0xdd, 0xe1, 0xec, 0xe8, 0xcb, 0xdb, 0xf2, 0xd9, 0xe4, 0x09, 0x05,
  0xf6, 0x07, 0x0a, 0xe7, 0xd2, 0x0b, 0x0a, 0xff, 0xfd, 0x05, 0x14, 0xf3,
  0xeb, 0xf0, 0xf8, 0xe7, 0xd9, 0xd0, 0xd9, 0xfc, 0xf9, 0xeb, 0xf5, 0xf1,
  0xf1, 0xed, 0xf7, 0xfc, 0xff, 0x09, 0xf8, 0x06, 0x10, 0x25, 0x13, 0xed,
  0xfb, 0x06, 0x05, 0xdc, 0xde, 0x0d, 0x0c, 0x0a, 0xef, 0xf6, 0xee, 0xff,
  0x19, 0x05, 0x01, 0xe3, 0xe7, 0xe6, 0xe7, 0xf2, 0xff, 0xfb, 0xff, 0xf4,
  0xfc, 0x13, 0xfa, 0xec, 0x06, 0xee, 0x0e, 0x23, 0x28, 0x38, 0x21, 0x0f,
  0xf9, 0xe9, 0xfe, 0x17, 0x14, 0x0a, 0x0d, 0xf3, 0xe8, 0xf9, 0xf9, 0xff,
  0x0b, 0x03, 0x09, 0x02, 0x24, 0x22, 0x25, 0xfe, 0xfb, 0xd7, 0x0e, 0x2d,
  0x13, 0xf3, 0x05, 0xf9, 0xe0, 0xf9, 0x0f, 0x10, 0x1b, 0x08, 0xfe, 0x07,
  0xff, 0x06, 0x0e, 0x0d, 0x11, 0x12, 0x13, 0x26, 0x01, 0xfa, 0x29, 0x0b,
  0xe8, 0xf5, 0xf1, 0x08, 0xf4, 0xee, 0x0f, 0x03, 0x05, 0x13, 0x0c, 0x12,
  0x13, 0x0d, 0x07, 0x06, 0x04, 0x04, 0x1f, 0x13, 0x12, 0x10, 0x05, 0x19,
  0x40, 0x60, 0x34, 0x32, 0x13, 0x18, 0xf4, 0xdf, 0xf5, 0xf4, 0x12, 0x0a,
  0x0d, 0x07, 0xf7, 0x0b, 0x17, 0x11, 0x0e, 0x09, 0x01, 0x1e, 0x20, 0x0c,
  0x15, 0x12, 0x20, 0x07, 0x43, 0x7f, 0x30, 0x2a, 0x0c, 0x00, 0x00, 0xcf,
  0xf9, 0xed, 0xfd, 0xea, 0xf5, 0xfe, 0x05, 0x0c, 0x18, 0x06, 0xfa, 0xff,
  0xf8, 0x08, 0x0a, 0x19, 0x16, 0x22, 0x21, 0x15, 0x3e, 0x76, 0x28, 0x17,
  0x1c, 0xf3, 0x1b, 0x06, 0x04, 0xf0, 0xf4, 0xed, 0x08, 0x00, 0x08, 0x0c,
  0x0b, 0x01, 0x04, 0xfc, 0x06, 0x07, 0x12, 0x07, 0x0e, 0x0e, 0x18, 0x36,
  0x47, 0x39, 0x32, 0x31, 0x13, 0x19, 0x19, 0x13, 0xfd, 0xe8, 0xf0, 0xfa,
  0x00, 0xff, 0x04, 0x01, 0xf5, 0x08, 0x0f, 0x13, 0x01, 0xfb, 0x00, 0xe2,
  0xeb, 0xea, 0x05, 0x20, 0x14, 0x21, 0x3c, 0x14, 0x01, 0x16, 0x33, 0x12,
  0xf4, 0xdf, 0xe8, 0xfd, 0xfd, 0x1c, 0x1b, 0x09, 0x07, 0x09, 0x22, 0x19,
  0x06, 0xf9, 0xe0, 0xeb, 0xe7, 0xe6, 0xe8, 0xe9, 0xf9, 0x23, 0x01, 0xf3,
  0xf8, 0x25, 0x2b, 0x20, 0xf5, 0xf6, 0xe8, 0xf0, 0x0e, 0x29, 0x20, 0x11,
  0x01, 0x10, 0x21, 0x0a, 0x05, 0xfc, 0xe6, 0xf1, 0xf7, 0xf5, 0xec, 0xe5,
  0xe6, 0x06, 0xd8, 0xf4, 0x0c, 0x07, 0xde, 0x02, 0xe7, 0xf4, 0x0c, 0xed,
  0x08, 0x18, 0x2c, 0x15, 0x0b, 0x15, 0x1b, 0x0d, 0x09, 0x09, 0xfb, 0xe5,
  0xe7, 0xe4, 0xfc, 0x03, 0xdf, 0xfb, 0xfa, 0xee, 0x13, 0xf9, 0xee, 0xea,
  0xe5, 0x18, 0x03, 0xe2, 0xf1, 0x05, 0x0f, 0x00, 0x11, 0x22, 0x08, 0x14,
  0x0c, 0x08, 0xf0, 0xda, 0xdc, 0xe2, 0xed, 0xe1, 0xcc, 0xc9, 0xc9, 0xe0,
  0x04, 0x0e, 0xfb, 0xe6, 0xd2, 0xf9, 0xfc, 0xee, 0xdc, 0xf8, 0xf1, 0x09,
  0x0c, 0x11, 0x1c, 0x0e, 0x0b, 0xfd, 0xed, 0xd3, 0xef, 0xe4, 0xe6, 0xe0,
  0xfe, 0x10, 0x00, 0xdd, 0x2a, 0xfd, 0x1b, 0xba, 0xc0, 0xde, 0xdb, 0xf2,
  0xdb, 0xd9, 0xea, 0x02, 0xfe, 0x19, 0x13, 0xfd, 0xf8, 0xf7, 0xe6, 0xd5,
  0xe8, 0xdb, 0xdb, 0xc8, 0xec, 0x19, 0x28, 0x06, 0x15, 0x17, 0x18, 0xb7,
  0xc2, 0xc6, 0xe2, 0xee, 0xe4, 0xd7, 0xe0, 0xed, 0xfd, 0x07, 0x02, 0xf7,
  0x02, 0xfc, 0xed, 0xf1, 0xe0, 0xdc, 0xc9, 0xbb, 0xdb, 0x12, 0x06, 0x1c,
  0x00, 0xed, 0xec, 0xbf, 0xc4, 0xe3, 0xec, 0xeb, 0xee, 0xdc, 0xf0, 0xef,
  0xf3, 0xf7, 0xff, 0xfe, 0x05, 0xff, 0xed, 0x09, 0xda, 0xd9, 0xf4, 0xca,
  0xf1, 0xee, 0x06, 0x0f, 0x01, 0xe9, 0xdb, 0xc7, 0xe8, 0xf7, 0xf1, 0x05,
  0xf6, 0xfd, 0xfa, 0xf7, 0xf7, 0xef, 0xfe, 0x08, 0xec, 0xfb, 0xfa, 0xe7,
  0xe3, 0xd7, 0xe6, 0xce, 0xf8, 0xf9, 0xd7, 0xf6, 0x0c, 0xf5, 0xd4, 0xed,
  0x08, 0xf5, 0xfe, 0x10, 0x02, 0x0b, 0x03, 0x0e, 0x08, 0x0d, 0x0a, 0xef,
  0xec, 0xff, 0xeb, 0xf2, 0xeb, 0xc2, 0xcb, 0xef, 0x02, 0x06, 0xea, 0xfc,
  0x06, 0xf7, 0xca, 0xe0, 0x00, 0x10, 0x00, 0x08, 0x06, 0x00, 0x17, 0xfc,
  0x0f, 0x09, 0x07, 0xf8, 0xfe, 0xe5, 0xe4, 0xea, 0xdc, 0xdc, 0xe7, 0xf5,
  0xe2, 0xf1, 0x0d, 0x01, 0x03, 0x04, 0xda, 0xd3, 0xe6, 0x18, 0x0a, 0x12,
  0x0f, 0x07, 0x17, 0x0c, 0x02, 0x0a, 0xf2, 0xee, 0xef, 0xe1, 0xe4, 0xe2,
  0xe5, 0xd8, 0xe4, 0x11, 0xfb, 0xfc, 0xf3, 0x00, 0x04, 0xf9, 0xf8, 0x27,
  0x05, 0x05, 0xeb, 0x01, 0x0d, 0x1f, 0x04, 0x10, 0x13, 0x0e, 0x09, 0x05,
  0x10, 0x0a, 0x0f, 0x07, 0xe3, 0xee, 0x04, 0x24, 0x07, 0x0a, 0xee, 0x08,
  0xfc, 0x04, 0xfc, 0x0a, 0x0a, 0xff, 0x09, 0x1b, 0x35, 0x47, 0x23, 0x19,
  0x0c, 0x19, 0x37, 0x2e, 0x37, 0x2d, 0x2f, 0x21, 0x25, 0x2b, 0x2c, 0x14,
  0x04, 0x08, 0x02, 0x05, 0xf7, 0xff, 0x07, 0xf7, 0x08, 0x07, 0x24, 0x1e,
  0x1b, 0x23, 0x44, 0x43, 0x3e, 0x5a, 0x5c, 0x48, 0x4a, 0x4f, 0x3e, 0x2e,
  0x27, 0x22, 0x12, 0x05, 0x00, 0xff, 0xfb, 0x01, 0xf7, 0xf1, 0xff, 0x02,
  0x09, 0x02, 0xf0, 0x06, 0xf3, 0x05, 0x0e, 0xfc, 0x21, 0x18, 0xf1, 0x02,
  0x01, 0xf3, 0xf6, 0x0a, 0xfe, 0xfa, 0xf4, 0x01, 0xfe, 0xfe, 0x07, 0x02,
  0xf8, 0xff, 0xff, 0xf7, 0x19, 0x27, 0x1d, 0x29, 0x3a, 0x47, 0x5c, 0x2c,
  0x37, 0x17, 0xe0, 0x13, 0x09, 0x38, 0x7f, 0x3e, 0x4c, 0x30, 0x3f, 0x2f,
  0xf6, 0xf7, 0xf3, 0x09, 0x09, 0x03, 0x12, 0xdc, 0xf9, 0x39, 0x4b, 0x2c,
  0x4f, 0x36, 0x30, 0x60, 0x30, 0x0b, 0x46, 0x5b, 0x15, 0x22, 0x34, 0x21,
  0x31, 0x30, 0x50, 0x3e, 0x2f, 0xf6, 0xfe, 0xf2, 0x01, 0xf2, 0xdd, 0xdc,
  0xf7, 0x15, 0x42, 0x0d, 0x32, 0x4a, 0x24, 0x3b, 0x16, 0x24, 0x03, 0x0f,
  0x13, 0xfa, 0x23, 0x12, 0xdc, 0x47, 0x36, 0x56, 0x26, 0xd9, 0xe3, 0xf1,
  0x0b, 0x06, 0xee, 0xe3, 0x29, 0x3e, 0x19, 0x0b, 0x22, 0x45, 0x44, 0x12,
  0x28, 0x1b, 0x30, 0xee, 0x0c, 0x0e, 0x01, 0x19, 0x21, 0x1f, 0x14, 0xfb,
  0xec, 0xd9, 0x2c, 0x4b, 0xf2, 0x06, 0x24, 0xd9, 0x26, 0xbd, 0xdc, 0x0f,
  0xeb, 0xfc, 0x10, 0x05, 0x0b, 0x0b, 0x1c, 0x09, 0xff, 0x25, 0xfa, 0x2b,
  0x29, 0x06, 0xf7, 0xf4, 0x29, 0x32, 0x38, 0x29, 0x08, 0xe7, 0xc5, 0xb9,
  0xe2, 0xc4, 0xe8, 0xfb, 0xfe, 0x0b, 0x10, 0x1e, 0x2d, 0xf9, 0x0e, 0x1e,
  0xf1, 0xf8, 0xe6, 0x00, 0xe2, 0xe2, 0xe8, 0x01, 0x10, 0x2f, 0x14, 0x24,
  0x03, 0xd1, 0xcf, 0xba, 0x1b, 0xd8, 0xe5, 0x0b, 0x2c, 0x0c, 0x18, 0x0d,
  0x08, 0x12, 0xfb, 0x15, 0xef, 0xe1, 0xe0, 0xd8, 0xd3, 0xec, 0xed, 0xd5,
  0xea, 0x2a, 0x1c, 0x0d, 0xda, 0xac, 0xac, 0xf4, 0x26, 0x08, 0x20, 0x16,
  0x15, 0x27, 0x16, 0xfd, 0x03, 0x27, 0x07, 0xe6, 0xe8, 0xe5, 0xd7, 0xf3,
  0xeb, 0xe3, 0xd8, 0xda, 0xc7, 0xe3, 0x2b, 0xf9, 0xe5, 0xc8, 0xdf, 0x1a,
  0xf4, 0xf9, 0x11, 0x14, 0x28, 0x22, 0xfd, 0xf7, 0xe7, 0xf0, 0x06, 0xf1,
  0xf9, 0xd5, 0xdf, 0xf7, 0xeb, 0xf9, 0xda, 0xee, 0xf2, 0x02, 0x1e, 0xd0,
  0xdb, 0xb9, 0xd5, 0xe4, 0x0b, 0x1c, 0x22, 0x18, 0x26, 0x08, 0x0e, 0xf7,
  0xef, 0xf0, 0x12, 0xec, 0xd9, 0xe7, 0xf7, 0xf3, 0xf3, 0xe4, 0xd8, 0x24,
  0x1c, 0xbb, 0xf8, 0xe9, 0xd5, 0xae, 0xc1, 0xef, 0x04, 0x36, 0x1b, 0x3c,
  0x1b, 0x3b, 0xfe, 0xe2, 0x01, 0x28, 0x2a, 0xf1, 0xfc, 0xde, 0xed, 0xed,
  0xdb, 0xe6, 0xe0, 0x2a, 0x4a, 0x00, 0x34, 0xeb, 0xd7, 0xbd, 0xb4, 0xf5,
  0xe8, 0x25, 0x1b, 0x35, 0xff, 0x27, 0xfd, 0x04, 0x14, 0x21, 0x20, 0x11,
  0x02, 0x0f, 0xec, 0xe2, 0xdd, 0x0d, 0x05, 0x5c, 0x6a, 0x03, 0xb3, 0xbe,
  0x21, 0xc6, 0xa9, 0xf1, 0xbc, 0x07, 0x07, 0xef, 0xfc, 0x08, 0x02, 0xfe,
  0x29, 0x36, 0x25, 0x40, 0x0e, 0x05, 0xe8, 0x04, 0xff, 0xf6, 0x23, 0x64,
  0x26, 0xf2, 0xc2, 0x14, 0xf2, 0xd4, 0xc9, 0xdb, 0x98, 0x04, 0x06, 0xf6,
  0xf2, 0x0b, 0x10, 0x31, 0x1b, 0x45, 0x33, 0x21, 0x22, 0x0a, 0x08, 0xef,
  0xd9, 0x17, 0x11, 0xf4, 0xe8, 0x23, 0xf3, 0x0d, 0xd5, 0xcc, 0x25, 0x01,
  0x8c, 0xd3, 0xe8, 0xf6, 0x16, 0x12, 0x17, 0x3a, 0x2e, 0x4e, 0x51, 0x14,
  0x28, 0x0b, 0xf2, 0xf5, 0xe6, 0xfc, 0x03, 0xf2, 0xef, 0x59, 0xc5, 0xdf,
  0xd9, 0xd7, 0x20, 0xf7, 0x89, 0xe9, 0xf8, 0x0d, 0x15, 0x23, 0x36, 0x35,
  0x1b, 0x3e, 0x3d, 0x1b, 0x2a, 0x01, 0xf0, 0xe5, 0xe0, 0xd5, 0xf2, 0x06,
  0xff, 0x68, 0xda, 0xda, 0xff, 0xcb, 0xfc, 0xdb, 0xd5, 0xe4, 0xe2, 0xf7,
  0x19, 0x10, 0x2c, 0x26, 0x2c, 0x24, 0x27, 0x0d, 0x20, 0x02, 0xfa, 0xed,
  0xed, 0x07, 0x0e, 0x1a, 0x24, 0x04, 0xd5, 0xee, 0xd4, 0xf0, 0xbb, 0xc7,
  0x05, 0xe7, 0x07, 0xfe, 0xe9, 0xf9, 0x0e, 0x00, 0x22, 0x3a, 0x1d, 0x19,
  0x0d, 0xfe, 0x0c, 0xf6, 0xfa, 0xd2, 0xfe, 0x1f, 0x22, 0x32, 0xb7, 0xe7,
  0xf7, 0xce, 0xaa, 0xbf, 0x06, 0xf6, 0xf5, 0xf6, 0x04, 0x14, 0x19, 0xfd,
  0xf0, 0x1b, 0x1c, 0x11, 0x04, 0x03, 0xfc, 0x03, 0xea, 0x01, 0x22, 0x45,
  0x04, 0x08, 0x0c, 0xf9, 0xfc, 0xde, 0xe7, 0xdf, 0x04, 0x00, 0x03, 0x3b,
  0x0b, 0x1a, 0x18, 0x0a, 0xfe, 0x13, 0x18, 0x2b, 0x05, 0x03, 0x0e, 0x09,
  0x1d, 0x31, 0x30, 0x27, 0xed, 0xf4, 0x0e, 0xf7, 0xfd, 0x25, 0x07, 0xf6,
  0x00, 0xf3, 0x21, 0x21, 0x25, 0x1f, 0x1a, 0x0f, 0xfd, 0x38, 0x31, 0x20,
  0xf2, 0x2c, 0x1d, 0x24, 0x24, 0xfb, 0x1d, 0x1f, 0xbf, 0xcc, 0xc7, 0xf6,
  0x05, 0xec, 0x1d, 0x09, 0x21, 0x00, 0x15, 0x23, 0x08, 0x02, 0x18, 0x16,
  0x15, 0x22, 0x11, 0x1c, 0x12, 0x1d, 0x10, 0x16, 0x23, 0x0b, 0xfd, 0xd8,
  0xbc, 0x0c, 0xb7, 0x05, 0xf9, 0x0a, 0x2c, 0xf2, 0xfb, 0xe6, 0xdc, 0xed,
  0x0c, 0xfc, 0xd3, 0xe5, 0x0e, 0x2a, 0x0f, 0x0e, 0x1b, 0x1e, 0x36, 0x46,
  0x37, 0x27, 0x42, 0x3a, 0xc6, 0x01, 0xcd, 0xf0, 0xf7, 0xf7, 0x31, 0xc8,
  0xea, 0xb8, 0xb0, 0xb1, 0xd5, 0xf1, 0xe6, 0x1d, 0x0c, 0x01, 0x09, 0x0a,
  0x21, 0xdb, 0x1f, 0x25, 0xf7, 0xdc, 0xfb, 0xe3, 0xc0, 0xef, 0xf5, 0x09,
  0xfe, 0x0f, 0x27, 0xc7, 0xb8, 0x92, 0xc3, 0xea, 0xe2, 0xdf, 0xec, 0xd2,
  0xde, 0xf4, 0xfe, 0xff, 0xf6, 0x04, 0x0a, 0xed, 0xe6, 0xa9, 0x9c, 0xaa,
  0x86, 0xef, 0x1b, 0x0a, 0x0b, 0x08, 0x08, 0x16, 0x35, 0xfc, 0x00, 0xfa,
  0x33, 0xf7, 0xe8, 0x0c, 0xee, 0xdb, 0xe9, 0xe7, 0xd8, 0x10, 0xfb, 0xa1,
  0xc2, 0xc6, 0xcc, 0xf6, 0x17, 0xf3, 0x0e, 0xfb, 0xf8, 0x08, 0xfe, 0x03,
  0xf7, 0xf0, 0x19, 0x19, 0x0c, 0xe6, 0xab, 0xbe, 0xf8, 0xa0, 0xd7, 0xf9,
  0xe4, 0xb1, 0xe8, 0xfd, 0xf1, 0xe2, 0xd3, 0xf2, 0xf7, 0xf3, 0x00, 0x0f,
  0xf7, 0xfe, 0x0e, 0xf3, 0xf6, 0xfd, 0x0d, 0x09, 0x0a, 0x01, 0x01, 0xf9,
  0xde, 0xd9, 0x12, 0x02, 0xf9, 0x08, 0x05, 0xf8, 0x03, 0xf5, 0xf6, 0xf7,
  0x0e, 0x00, 0x0a, 0x0b, 0x06, 0xf3, 0x03, 0xfa, 0xf9, 0xea, 0xda, 0xe6,
  0xbf, 0xbd, 0xbe, 0xe2, 0xd0, 0xee, 0x16, 0xcb, 0xe0, 0xe3, 0xbc, 0xd2,
  0xe3, 0xdb, 0xd9, 0xce, 0xff, 0x09, 0x05, 0x01, 0xfe, 0x05, 0xf2, 0xe0,
  0xcb, 0x09, 0x16, 0xde, 0x10, 0x50, 0x30, 0x2e, 0x57, 0x0f, 0x5d, 0x19,
  0xfc, 0x0d, 0xec, 0xe6, 0xfc, 0x11, 0xe5, 0xbb, 0xe6, 0x28, 0xf7, 0x0c,
  0xf9, 0xf5, 0xe8, 0xce, 0xb6, 0x0d, 0x09, 0x0a, 0xf9, 0xfb, 0x16, 0x27,
  0x09, 0xe5, 0x1d, 0x15, 0xf4, 0xf7, 0xfa, 0x08, 0xfa, 0xf7, 0xff, 0x0b,
  0x0d, 0x1c, 0x25, 0x09, 0x0a, 0x0a, 0xe0, 0xbb, 0xef, 0x22, 0x3b, 0x1d,
  0x2c, 0x06, 0x02, 0x08, 0x16, 0x18, 0xeb, 0xd9, 0xed, 0xf1, 0xf4, 0xf9,
  0xf1, 0x04, 0x19, 0x1b, 0x22, 0x2f, 0x0f, 0xfa, 0x02, 0xfe, 0xdd, 0x07,
  0x12, 0xf5, 0x27, 0x29, 0x27, 0x01, 0xf9, 0x0d, 0x40, 0x17, 0x11, 0xf2,
  0x0b, 0x04, 0xef, 0xd6, 0xf3, 0xf2, 0xdb, 0x16, 0x24, 0x41, 0xd6, 0xff,
  0xff, 0x29, 0xf6, 0x31, 0x21, 0x3b, 0x22, 0xf9, 0x02, 0x13, 0xfa, 0xff,
  0x1a, 0x22, 0x0b, 0x0c, 0xfa, 0xd6, 0xa9, 0xcb, 0xe2, 0xe4, 0xe6, 0xf3,
  0x0b, 0x06, 0x06, 0x07, 0x06, 0x4a, 0xf6, 0x4c, 0x65, 0x3d, 0x1d, 0x0f,
  0x02, 0xdd, 0xd9, 0xf8, 0x20, 0x25, 0x23, 0x09, 0xf6, 0xfa, 0xc7, 0xfa,
  0xe8, 0xe0, 0xe4, 0xf6, 0x0d, 0x13, 0xed, 0xf6, 0xfb, 0x18, 0xf5, 0x0a,
  0x49, 0x15, 0x07, 0x0c, 0xd6, 0xec, 0xe4, 0xfd, 0x01, 0xfb, 0x15, 0x08,
  0xde, 0xe4, 0xdc, 0xff, 0xf9, 0xed, 0xe1, 0x08, 0x06, 0xf9, 0xdb, 0xdf,
  0x0a, 0x16, 0xf3, 0xf2, 0xfb, 0x06, 0xde, 0xf1, 0xdf, 0xd4, 0xb8, 0xc5,
  0xe1, 0xfb, 0x00, 0xf8, 0xed, 0xe2, 0xed, 0xf4, 0xf9, 0x08, 0x09, 0xdf,
  0xdf, 0xcc, 0xd6, 0xd9, 0x14, 0x21, 0xf5, 0xe2, 0xd3, 0xe6, 0xd4, 0xd6,
  0xdc, 0xa9, 0xad, 0xd4, 0xea, 0xf9, 0xf4, 0xfd, 0xf8, 0xf8, 0x04, 0x03,
  0xf5, 0xf0, 0xf1, 0xd6, 0xca, 0xd0, 0xd8, 0xf3, 0x02, 0xe9, 0xee, 0xee,
  0xca, 0xc7, 0xac, 0xc7, 0xe4, 0xc2, 0xde, 0xe5, 0xff, 0x0a, 0x05, 0x0b,
  0xf5, 0xde, 0xfc, 0x1d, 0xe1, 0xeb, 0xf7, 0xce, 0xa7, 0xce, 0xac, 0x0c,
  0xf8, 0x0e, 0xeb, 0xca, 0xb9, 0xb7, 0xbe, 0xe6, 0xf4, 0xec, 0xf5, 0x0d,
  0x36, 0x38, 0x0a, 0xf7, 0x08, 0xdd, 0xe0, 0xf3, 0xe0, 0x09, 0x0e, 0xd3,
  0x1d, 0x2d, 0xe7, 0xea, 0xd9, 0xea, 0xfe, 0xe6, 0xa8, 0xd9, 0xf9, 0xe8,
  0x07, 0x16, 0x25, 0x25, 0x2e, 0x27, 0xf0, 0x02, 0xfc, 0xfc, 0x04, 0xf3,
  0x04, 0x2d, 0x01, 0x13, 0x40, 0x3a, 0x1c, 0x2a, 0x0f, 0xe2, 0xec, 0x1d,
  0xe6, 0x19, 0x0a, 0xfe, 0x31, 0x1a, 0x08, 0x17, 0x20, 0xf9, 0x0c, 0x11,
  0x0e, 0x05, 0xf9, 0x10, 0x07, 0x2b, 0x22, 0x0b, 0x06, 0x46, 0x40, 0x26,
  0x18, 0xe2, 0x20, 0x02, 0xe5, 0x13, 0x3a, 0x25, 0x27, 0x34, 0xfd, 0x10,
  0x04, 0x07, 0x1f, 0x2b, 0x24, 0x24, 0xfc, 0x18, 0x06, 0x2a, 0x1b, 0x26,
  0x04, 0x1b, 0x4c, 0x2c, 0x08, 0xee, 0x35, 0x08, 0xf0, 0x10, 0x2e, 0x59,
  0x3d, 0x2c, 0x05, 0x02, 0xff, 0x12, 0x29, 0x48, 0x31, 0x2f, 0x10, 0x38,
  0x1c, 0x2a, 0x24, 0x26, 0x1a, 0x32, 0x7f, 0x1b, 0xf6, 0xea, 0x3a, 0x22,
  0x3d, 0x0b, 0x23, 0x27, 0x39, 0x1f, 0xe1, 0xf7, 0xea, 0x10, 0x20, 0x21,
  0x24, 0x18, 0x2c, 0x26, 0x16, 0x3f, 0x27, 0x2f, 0xfa, 0x2a, 0x19, 0xff,
  0xcb, 0x09, 0x2c, 0x58, 0x47, 0x1d, 0x23, 0x1b, 0x09, 0xf6, 0xbe, 0xcb,
  0xf8, 0x06, 0x03, 0x12, 0x1c, 0x25, 0x21, 0x20, 0x25, 0x45, 0x12, 0x25,
  0x08, 0x0b, 0x15, 0x4b, 0x04, 0xe1, 0xdd, 0x20, 0x28, 0x14, 0x12, 0x0d,
  0xf1, 0xfa, 0xe6, 0xf7, 0xd4, 0xdd, 0xe3, 0x06, 0x12, 0x13, 0x18, 0xfb,
  0x00, 0x25, 0x00, 0xe3, 0xc6, 0xe6, 0x42, 0x24, 0x00, 0xd5, 0x04, 0x22,
  0x08, 0xee, 0xee, 0xf1, 0xe3, 0xf5, 0xee, 0xff, 0xe5, 0xc7, 0xef, 0xf2,
  0x08, 0xf9, 0x10, 0xed, 0x08, 0x1a, 0xf0, 0xe4, 0xcb, 0xbc, 0x2b, 0x09,
  0xfc, 0x27, 0x4a, 0xfe, 0xde, 0xca, 0xd2, 0xe7, 0xf9, 0xf0, 0xfd, 0xff,
  0x01, 0xf3, 0xe0, 0xfe, 0xf8, 0x08, 0xf1, 0xf4, 0xf8, 0xe0, 0x07, 0x18,
  0xd9, 0xe1, 0xf6, 0x06, 0xf0, 0xfe, 0x48, 0x17, 0xe4, 0xdd, 0xcd, 0xf4,
  0xfc, 0xfb, 0x0e, 0x0a, 0xf2, 0xf6, 0xd8, 0xf6, 0xfd, 0xd9, 0xe7, 0x06,
  0xe5, 0x05, 0xfc, 0x15, 0xff, 0x01, 0xf5, 0xff, 0x05, 0x08, 0x35, 0x27,
  0x21, 0x20, 0x08, 0x3b, 0x0e, 0x22, 0x12, 0x2c, 0x0c, 0xf2, 0xed, 0xfc,
  0xe6, 0xd7, 0xde, 0xdc, 0xf5, 0xfe, 0xe3, 0xe4, 0xbf, 0xe3, 0xfb, 0x02,
  0xf2, 0x09, 0x26, 0x04, 0x16, 0x25, 0x0f, 0x31, 0x19, 0x1c, 0x16, 0x2f,
  0x0f, 0xef, 0xfc, 0xe9, 0x06, 0xde, 0xd6, 0xd1, 0x03, 0x16, 0x10, 0xc1,
  0xd5, 0x37, 0x1f, 0x00, 0x06, 0x0b, 0xf9, 0x0a, 0xe2, 0xc7, 0x02, 0x07,
  0xde, 0xfe, 0x01, 0x00, 0xeb, 0xe2, 0xe2, 0xdb, 0xc7, 0xb8, 0xeb, 0xc0,
  0xe6, 0xd9, 0x12, 0xfb, 0xe0, 0x18, 0x22, 0xf5, 0xf7, 0xf2, 0x06, 0xf8,
  0xd6, 0xc3, 0xc2, 0xaa, 0xd9, 0xf3, 0xfc, 0xcc, 0xba, 0xe9, 0x9a, 0xb2,
  0xdc, 0xef, 0xd2, 0xc2, 0x99, 0xd2, 0xbe, 0xca, 0xd8, 0xf1, 0x00, 0xf7,
  0xf2, 0xfc, 0xfe, 0x01, 0xf3, 0x0b, 0xd2, 0xd7, 0xd3, 0xcc, 0xe0, 0xd6,
  0xd2, 0xe7, 0xd6, 0xd8, 0x00, 0xff, 0xf7, 0xe8, 0xf2, 0xf0, 0x08, 0x0a,
  0x07, 0xf7, 0xfd, 0xf7, 0x0b, 0xfc, 0xf3, 0xfd, 0xf7, 0xf5, 0xf8, 0xff,
  0xf7, 0x0b, 0x01, 0x05, 0xeb, 0xff, 0x13, 0x10, 0xf9, 0x04, 0x0d, 0xf4,
  0x04, 0x05, 0xf9, 0x0a, 0x07, 0x05, 0x02, 0x05, 0xf8, 0xf8, 0x03, 0xfd,
  0x0d, 0x07, 0xf4, 0xf9, 0xfa, 0xdf, 0xd6, 0xec, 0xc7, 0xfd, 0xe6, 0xd8,
  0x17, 0x03, 0xec, 0xbb, 0xd1, 0xd5, 0x04, 0xfa, 0x06, 0xfd, 0x02, 0xf5,
  0x0a, 0xfc, 0x00, 0x00, 0xee, 0xeb, 0xce, 0xc4, 0x06, 0x11, 0x0e, 0x0a,
  0x2c, 0x04, 0xee, 0xfe, 0x11, 0x1d, 0x08, 0xef, 0x16, 0x00, 0xfc, 0x07,
  0x14, 0x1b, 0x0c, 0xf3, 0x0c, 0x01, 0x13, 0x31, 0x28, 0x16, 0x02, 0x22,
  0x47, 0x32, 0x4a, 0x46, 0x6b, 0x5d, 0x52, 0x58, 0x49, 0x50, 0x43, 0x25,
  0x19, 0xf5, 0xeb, 0x01, 0x12, 0x00, 0xed, 0x0d, 0x04, 0x0e, 0x20, 0x4c,
  0xe5, 0x09, 0x18, 0x37, 0x32, 0x45, 0x66, 0x52, 0x4d, 0x20, 0x42, 0x48,
  0x52, 0x41, 0x31, 0x1f, 0x09, 0xfa, 0xfa, 0xcf, 0x0f, 0x08, 0x08, 0xe3,
  0x0b, 0x09, 0x35, 0x4b, 0x31, 0xe8, 0x19, 0x0f, 0xde, 0xf2, 0x01, 0x21,
  0x22, 0x12, 0x12, 0x1e, 0x36, 0x25, 0x0d, 0x16, 0x2f, 0x10, 0x0a, 0xbc,
  0xdb, 0x1a, 0x24, 0xed, 0xfc, 0x1f, 0xf9, 0x07, 0x0b, 0xf9, 0x0a, 0xf6,
  0x10, 0x15, 0x04, 0x03, 0x0d, 0xfc, 0xfc, 0x09, 0x0c, 0xfb, 0x08, 0x0e,
  0x0a, 0x00, 0xf1, 0x09, 0xea, 0x29, 0x22, 0xf7, 0xfd, 0x34, 0xe9, 0x09,
  0x38, 0x0d, 0xfe, 0x11, 0x1e, 0xff, 0xf6, 0xea, 0xf3, 0xfc, 0xf3, 0x15,
  0xff, 0xf2, 0x01, 0x05, 0xf5, 0xf6, 0xfb, 0x0f, 0x0a, 0x2c, 0x3a, 0x12,
  0xf9, 0x1b, 0xd6, 0x11, 0x2c, 0x04, 0xfd, 0x17, 0xf6, 0xf1, 0x00, 0xeb,
  0x09, 0xf1, 0xe8, 0xf3, 0x10, 0xfc, 0x00, 0x15, 0x0c, 0x06, 0x32, 0x26,
  0x1f, 0x5d, 0x7f, 0x52, 0x01, 0xf5, 0x09, 0x06, 0x13, 0x10, 0x0e, 0xfe,
  0x11, 0xee, 0xf8, 0xef, 0xfb, 0xd7, 0xe6, 0xe8, 0x0f, 0x14, 0x06, 0x0e,
  0x16, 0x20, 0x4d, 0x54, 0x38, 0x61, 0x43, 0xf2, 0xf1, 0x02, 0xf4, 0x1e,
  0x18, 0xf1, 0x0c, 0xf4, 0xff, 0xd8, 0xf0, 0xe5, 0xeb, 0xe2, 0xe0, 0xdd,
  0x08, 0xf3, 0x04, 0x01, 0x22, 0x22, 0x34, 0x32, 0x0c, 0x20, 0x27, 0xfc,
  0xeb, 0xf8, 0xb6, 0x32, 0x3f, 0xf2, 0xf3, 0xe1, 0xd6, 0xd2, 0xd1, 0xe8,
  0xf4, 0xfc, 0x01, 0x03, 0xe2, 0xf2, 0xe8, 0x04, 0x01, 0xf3, 0xeb, 0xab,
  0xdc, 0xe5, 0xf6, 0xdd, 0xe2, 0xe9, 0xc2, 0x21, 0xfb, 0xf5, 0xde, 0xf6,
  0xdc, 0xff, 0xff, 0xf6, 0x12, 0x13, 0x17, 0x1b, 0xfb, 0xfe, 0xfd, 0xf9,
  0xf9, 0xd9, 0xad, 0x83, 0x90, 0xb8, 0xe3, 0xe7, 0x19, 0xd0, 0xc1, 0x2a,
  0xd3, 0xf6, 0xf3, 0x0c, 0x09, 0x1a, 0xf8, 0xfd, 0x07, 0x28, 0x1c, 0x11,
  0x10, 0x0b, 0x16, 0xee, 0xee, 0x97, 0x93, 0xa2, 0x9a, 0xaa, 0xce, 0xfe,
  0x12, 0x0a, 0x11, 0x32, 0xfc, 0xfa, 0x1f, 0x09, 0x15, 0x04, 0xf3, 0xfc,
  0x06, 0x29, 0x33, 0x23, 0x01, 0x04, 0xe4, 0xd0, 0xbd, 0xad, 0x98, 0xc4,
  0xc5, 0xe9, 0xd3, 0xf7, 0x10, 0x19, 0x3c, 0x2a, 0x0d, 0x20, 0x2c, 0x05,
  0x06, 0x07, 0xfb, 0xf1, 0xfc, 0x1a, 0x2c, 0x0d, 0xfc, 0xe0, 0xd7, 0xec,
  0xe1, 0xd2, 0xde, 0xdc, 0x13, 0x10, 0xe6, 0xf5, 0x08, 0x30, 0x3f, 0x63,
  0x14, 0x02, 0x22, 0x0b, 0x04, 0x09, 0xfc, 0xfd, 0x06, 0x1f, 0x1d, 0x06,
  0xe1, 0xe7, 0xe1, 0xfa, 0xf8, 0xff, 0x02, 0x08, 0x2d, 0x01, 0xea, 0xf5,
  0x05, 0x28, 0x21, 0x48, 0x30, 0x02, 0x05, 0x00, 0x15, 0x04, 0xe2, 0xf9,
  0xf4, 0x13, 0xf0, 0xea, 0xef, 0x03, 0xee, 0x01, 0xfb, 0x1e, 0x0e, 0x11,
  0xf2, 0xc6, 0xcc, 0x21, 0xf1, 0x0e, 0x17, 0x43, 0x2a, 0x2d, 0x18, 0xff,
  0xf6, 0x01, 0xf3, 0xea, 0xed, 0xfe, 0xe0, 0xec, 0x03, 0xff, 0xf7, 0x0c,
  0x15, 0x0f, 0x11, 0x15, 0x06, 0xcb, 0xd0, 0x0d, 0xf7, 0xe9, 0xf3, 0x05,
  0x2c, 0x24, 0x13, 0xe5, 0xef, 0xe7, 0x00, 0xdf, 0xeb, 0x01, 0xe8, 0x05,
  0x17, 0x29, 0x21, 0x1e, 0x1e, 0x2c, 0x23, 0x48, 0x0e, 0x04, 0x1f, 0x07,
  0xf9, 0x02, 0x01, 0x13, 0x32, 0x17, 0xfc, 0x09, 0xfc, 0xde, 0xeb, 0xee,
  0xe0, 0x02, 0xf6, 0x0f, 0x0c, 0x0c, 0x25, 0x1f, 0x3e, 0x49, 0x2d, 0x4e,
  0x12, 0x09, 0xe9, 0xe9, 0xe5, 0xf0, 0x1b, 0x04, 0x0c, 0xd4, 0x09, 0x0c,
  0xe7, 0xea, 0xd5, 0xfd, 0xdb, 0xf4, 0x03, 0x13, 0x0c, 0x18, 0x27, 0x2d,
  0x25, 0x15, 0x35, 0x3d, 0xe8, 0x01, 0xfb, 0xf2, 0xe5, 0x0e, 0x17, 0x36,
  0x1d, 0xe9, 0x03, 0x18, 0xed, 0xf0, 0xf1, 0x07, 0x02, 0xfc, 0x14, 0x25,
  0x14, 0x19, 0x1c, 0x1c, 0x29, 0x13, 0x31, 0x39, 0x14, 0x02, 0xc8, 0x08,
  0x08, 0xfc, 0x2f, 0x6e, 0x51, 0x06, 0xf4, 0x0b, 0x1c, 0x0e, 0x11, 0x11,
  0x0b, 0x25, 0x15, 0x1e, 0x13, 0x21, 0x2a, 0x12, 0x2b, 0x2e, 0x4f, 0x28,
  0xea, 0xeb, 0xe9, 0x01, 0x07, 0x01, 0x19, 0x4d, 0x23, 0xe2, 0x12, 0x0e,
  0x37, 0x1f, 0x26, 0x42, 0x3b, 0x1d, 0x1f, 0x1d, 0x24, 0xfc, 0x05, 0x07,
  0xe9, 0x10, 0x11, 0xf7, 0x20, 0xe3, 0xff, 0x0c, 0xf5, 0xf6, 0x16, 0xd7,
  0xe9, 0xfd, 0x2a, 0x2d, 0x3d, 0x34, 0x3f, 0x1f, 0x40, 0x2f, 0x12, 0x1c,
  0x0d, 0x12, 0xff, 0x20, 0xf5, 0xe8, 0xf1, 0x1c, 0x1e, 0xe8, 0x14, 0xf8,
  0x04, 0x03, 0xf5, 0xf6, 0xe4, 0xbd, 0x9d, 0xd3, 0x03, 0xee, 0x17, 0x2d,
  0xff, 0x0c, 0xe9, 0xea, 0x0e, 0x15, 0x1b, 0xfa, 0xe1, 0x9d, 0xb5, 0xf5,
  0xdc, 0x0d, 0x07, 0x03, 0xfd, 0x05, 0x09, 0x06, 0x08, 0x03, 0x02, 0xed,
  0xde, 0xcb, 0xd5, 0xf4, 0x0e, 0xfb, 0xc8, 0xbd, 0xbf, 0xaf, 0xd2, 0xd1,
  0xd4, 0xcf, 0xe1, 0xe8, 0xf3, 0xf9, 0x0c, 0xff, 0xf8, 0xff, 0xfe, 0xfb,
  0x09, 0x08, 0x0c, 0x02, 0x08, 0x07, 0x07, 0x09, 0x17, 0x20, 0x03, 0x04,
  0x0b, 0x04, 0xf3, 0x06, 0x04, 0x0c, 0x09, 0xf9, 0x04, 0xfd, 0xfb, 0xfe,
  0x02, 0x01, 0x05, 0xfa, 0x06, 0xfc, 0x04, 0xfa, 0x17, 0x23, 0x25, 0x2b,
  0x46, 0x4e, 0x38, 0x08, 0x1c, 0x1a, 0x14, 0xfd, 0xf1, 0xf7, 0x00, 0xfc,
  0x03, 0xff, 0x09, 0xfc, 0xf5, 0xfa, 0xf7, 0x02, 0xfd, 0x08, 0xee, 0xf6,
  0x02, 0x03, 0x22, 0x2d, 0xef, 0xf2, 0xf5, 0x10, 0x29, 0x0d, 0x02, 0x09,
  0xee, 0xc8, 0xe8, 0xe7, 0xdf, 0xe8, 0x0a, 0xfd, 0xfe, 0xf8, 0xde, 0x00,
  0x16, 0x1b, 0x10, 0xe7, 0xf8, 0xc3, 0xd2, 0x11, 0xff, 0xf9, 0xed, 0xfb,
  0x15, 0x20, 0x21, 0xe8, 0xf8, 0x08, 0x10, 0xe7, 0x12, 0x21, 0x44, 0xf2,
  0x05, 0x0c, 0xd2, 0xe5, 0xdc, 0xdf, 0xac, 0xae, 0x94, 0xcd, 0xf0, 0xfb,
  0xf0, 0xd4, 0x0e, 0x04, 0x08, 0x35, 0x1f, 0xea, 0xf4, 0xe8, 0x1c, 0x3a,
  0x22, 0x39, 0x21, 0x21, 0xf7, 0xf3, 0xe0, 0xdf, 0xc1, 0xcb, 0x8f, 0xb4,
  0xac, 0xd9, 0x0a, 0x15, 0x13, 0x1a, 0x0d, 0xf0, 0x05, 0x1a, 0xf9, 0xf8,
  0x36, 0x0c, 0x1a, 0x0e, 0xff, 0x19, 0x26, 0x37, 0xf6, 0xda, 0x11, 0xcb,
  0xb6, 0xd6, 0x8f, 0xb0, 0xe5, 0xfd, 0xe1, 0xf0, 0xff, 0x10, 0x22, 0x08,
  0xfa, 0xee, 0xe6, 0x10, 0x13, 0xf6, 0x41, 0x2f, 0x26, 0x16, 0x0d, 0xf5,
  0xfd, 0xf6, 0x09, 0xc5, 0xae, 0xd4, 0x85, 0x9f, 0xe0, 0xf4, 0xfc, 0x0c,
  0xfd, 0x06, 0x09, 0x23, 0xfc, 0xf3, 0xfd, 0x07, 0x0c, 0x16, 0x29, 0x31,
  0x25, 0x24, 0x24, 0x13, 0x06, 0xe4, 0xdd, 0xd3, 0xe8, 0xde, 0xdc, 0xf9,
  0x03, 0x12, 0xfe, 0xfd, 0xfd, 0xf0, 0xf4, 0x05, 0x0b, 0xfd, 0xec, 0xe4,
  0x02, 0x1f, 0x08, 0x18, 0x34, 0x4a, 0xf5, 0xf5, 0x04, 0xef, 0xee, 0x06,
  0xcf, 0xa8, 0xec, 0xf7, 0x09, 0x0d, 0x13, 0x06, 0xfb, 0xf7, 0xde, 0xdc,
  0xfe, 0xef, 0xe3, 0xdb, 0x03, 0x02, 0xf6, 0x23, 0x5a, 0x3b, 0xf6, 0xe0,
  0xfe, 0xdf, 0xf2, 0xee, 0xe8, 0xcc, 0xdc, 0xf3, 0x2a, 0x1f, 0x1b, 0x0d,
  0x19, 0xc0, 0xb2, 0xd7, 0xc8, 0xf6, 0xf9, 0xf8, 0xf5, 0xf0, 0xfa, 0x0e,
  0x42, 0x19, 0x0d, 0xc2, 0xe8, 0xd9, 0xd5, 0xc1, 0xba, 0xce, 0xe7, 0xf3,
  0x1c, 0x1b, 0x25, 0x16, 0x0e, 0xdf, 0xb8, 0xc3, 0xee, 0xf5, 0xff, 0xf5,
  0xb6, 0xcf, 0xd5, 0x14, 0x1a, 0x3a, 0x47, 0xbe, 0xe6, 0xf1, 0x02, 0xce,
  0xd8, 0xb8, 0xe4, 0xf0, 0x17, 0x1a, 0x37, 0x35, 0x15, 0x19, 0xe4, 0xf7,
  0xd4, 0xf1, 0xee, 0x14, 0xec, 0xdc, 0xe2, 0x0b, 0xe8, 0xec, 0xe4, 0xc9,
  0xfc, 0xeb, 0xd2, 0x08, 0xeb, 0xd1, 0xd2, 0x10, 0xf4, 0x14, 0x38, 0x2f,
  0x40, 0x21, 0x1c, 0x07, 0xf1, 0xec, 0xfe, 0x1b, 0xf9, 0xdf, 0xec, 0xf7,
  0xd4, 0xce, 0xbc, 0xe1, 0x16, 0x04, 0xd8, 0xfa, 0xe6, 0xf0, 0xf8, 0x0f,
  0xf4, 0xf9, 0x1d, 0x3d, 0x38, 0x18, 0x16, 0xf2, 0xf2, 0x0a, 0x1e, 0xea,
  0xff, 0xe3, 0xd9, 0xe8, 0xfa, 0xb2, 0x9b, 0xe4, 0x13, 0x18, 0x15, 0xde,
  0xb8, 0xcd, 0xee, 0xf6, 0x05, 0xfe, 0x1b, 0x39, 0x45, 0x19, 0xf7, 0xe9,
  0x00, 0x09, 0x07, 0xfd, 0xe0, 0xdc, 0xc6, 0xd7, 0xff, 0xe0, 0xdf, 0xe7,
  0xdf, 0x04, 0x09, 0xdc, 0x81, 0x9c, 0x9c, 0xba, 0xdd, 0xd3, 0x10, 0x47,
  0x5f, 0x1c, 0x00, 0xfc, 0xef, 0x03, 0x05, 0x02, 0xfb, 0xec, 0xd9, 0xb9,
  0xed, 0x10, 0xa2, 0xf1, 0x02, 0x07, 0x02, 0xdd, 0xda, 0xb4, 0x98, 0xb0,
  0xc7, 0xc9, 0x20, 0x41, 0x1e, 0x07, 0xe7, 0x01, 0xf3, 0x0f, 0x00, 0x01,
  0xed, 0x00, 0xd6, 0xc5, 0xd8, 0xc1, 0xac, 0xe0, 0xf0, 0xe9, 0x0a, 0x10,
  0x24, 0x0e, 0x06, 0xd9, 0xd6, 0xc8, 0xe8, 0xf7, 0xff, 0xeb, 0xd2, 0x0b,
  0x11, 0x05, 0x0c, 0x0c, 0xf9, 0xf7, 0xed, 0xe0, 0xf3, 0xec, 0xc5, 0xd7,
  0xf4, 0xd8, 0x04, 0x17, 0x34, 0x3a, 0x15, 0x0d, 0x09, 0xdf, 0xde, 0xdd,
  0xea, 0xd1, 0xda, 0x18, 0x16, 0x2f, 0x28, 0x1f, 0x0b, 0x0b, 0x10, 0xed,
  0x05, 0xf8, 0xcf, 0xe5, 0x0a, 0xe5, 0xfb, 0x1d, 0x20, 0x48, 0x05, 0xf7,
  0xfe, 0xfd, 0xe6, 0xfc, 0xfb, 0xf6, 0xe9, 0x05, 0x1b, 0x2a, 0x1f, 0x12,
  0xfd, 0x01, 0x14, 0xe9, 0x04, 0x37, 0xf1, 0x06, 0xeb, 0xe1, 0xf4, 0x08,
  0x17, 0x10, 0xfc, 0xed, 0xfb, 0xf2, 0xf0, 0xf7, 0xfc, 0x0a, 0xfe, 0x14,
  0x09, 0x12, 0xe8, 0xed, 0xf4, 0xf1, 0xff, 0x1c, 0x12, 0x3b, 0x17, 0x0d,
  0x03, 0xf2, 0xfc, 0x16, 0x11, 0xec, 0xee, 0xee, 0xe3, 0xec, 0xf2, 0x18,
  0x20, 0x23, 0x19, 0x1f, 0x1e, 0x09, 0xe7, 0xf4, 0xe4, 0xd1, 0xe9, 0x3e,
  0x3b, 0x17, 0x18, 0x0d, 0x08, 0x06, 0x13, 0xff, 0x1f, 0x38, 0x14, 0x16,
  0x40, 0x0f, 0x20, 0x20, 0x26, 0x32, 0x24, 0x10, 0x11, 0x10, 0x07, 0xff,
  0xf1, 0xe9, 0x27, 0x53, 0x57, 0x28, 0xe6, 0x09, 0xf3, 0x09, 0x2b, 0x1f,
  0x27, 0x12, 0x0e, 0x12, 0x1c, 0x31, 0x2a, 0x25, 0x36, 0x36, 0x23, 0x1a,
  0x3f, 0x2f, 0x3b, 0x0e, 0x26, 0xfb, 0x3a, 0x56, 0x51, 0xf5, 0xc9, 0x09,
  0xf3, 0xfc, 0x21, 0x24, 0xf8, 0xde, 0xe4, 0xf5, 0xd2, 0xfc, 0x1a, 0x08,
  0xeb, 0x11, 0x01, 0x06, 0x29, 0x27, 0x36, 0x0c, 0x40, 0x34, 0x70, 0x66,
  0x5a, 0x08, 0xe8, 0x09, 0x06, 0x00, 0x06, 0x1c, 0x43, 0xfd, 0x06, 0x11,
  0x07, 0xf1, 0xfd, 0x11, 0x16, 0xee, 0xfb, 0xef, 0xf9, 0x10, 0x07, 0xcf,
  0xf8, 0xe3, 0xd5, 0x32, 0x08, 0xfd, 0xf7, 0x08, 0xfa, 0x0c, 0x02, 0xfe,
  0x03, 0xf8, 0x10, 0x2b, 0x19, 0xff, 0xe9, 0x09, 0x08, 0xe1, 0x16, 0x19,
  0xf0, 0xdb, 0xf9, 0xf8, 0xd7, 0xd0, 0xcf, 0xf7, 0x0a, 0xfa, 0xf8, 0x0c,
  0xf5, 0xff, 0xf7, 0xf9, 0xf7, 0xfb, 0x02, 0xfc, 0x03, 0x0b, 0xf9, 0xff,
  0x0b, 0xf8, 0x00, 0xfb, 0x0d, 0x09, 0x02, 0xfb, 0x06, 0x0d, 0xfb, 0xfa,
  0xff, 0x0a, 0x05, 0xf7, 0xfb, 0xfe, 0xff, 0xfe, 0x06, 0x08, 0x10, 0x0a,
  0x01, 0x24, 0x28, 0x0c, 0x0f, 0xf2, 0x07, 0x06, 0xce, 0x01, 0x43, 0x39,
  0x39, 0x22, 0x19, 0x0c, 0xfd, 0x0a, 0xfe, 0x06, 0xfc, 0xf5, 0x0c, 0x0a,
  0x1c, 0x19, 0x0d, 0xe5, 0xf0, 0xe2, 0xfa, 0xea, 0xed, 0xe1, 0xe4, 0xea,
  0xf6, 0x02, 0xf5, 0x26, 0xfe, 0x12, 0x50, 0x36, 0x18, 0xfe, 0x05, 0xf3,
  0x04, 0xf6, 0x07, 0x36, 0x2f, 0xdb, 0xdb, 0xd2, 0xf5, 0xe3, 0xea, 0xe4,
  0x17, 0xe3, 0xde, 0xff, 0x09, 0x13, 0xfd, 0x12, 0x30, 0x09, 0xfd, 0x04,
  0x22, 0x0b, 0x2d, 0xf3, 0x0c, 0x0a, 0x0a, 0x40, 0x07, 0x04, 0xf0, 0xf0,
  0xd9, 0xab, 0xb7, 0xec, 0xde, 0x00, 0xdf, 0xf6, 0xea, 0xe1, 0xe4, 0x10,
  0x05, 0x21, 0x09, 0x26, 0x13, 0xe4, 0xf8, 0x19, 0x05, 0xff, 0x20, 0x3a,
  0x21, 0x3f, 0x25, 0x0c, 0xe2, 0xeb, 0xe7, 0xf4, 0xed, 0x03, 0x03, 0x15,
  0xf6, 0xfa, 0x00, 0xe6, 0x02, 0x04, 0x01, 0x1d, 0x1b, 0xd6, 0x0a, 0x24,
  0x00, 0x12, 0x15, 0x1a, 0x13, 0x17, 0x18, 0x19, 0x1b, 0x07, 0x05, 0x0d,
  0xfc, 0x10, 0x0c, 0x04, 0x01, 0x07, 0x0f, 0x04, 0x13, 0xf5, 0x04, 0x1e,
  0x26, 0xdf, 0x05, 0x1a, 0x01, 0x35, 0x18, 0x3c, 0xf8, 0xdc, 0xd6, 0x01,
  0x07, 0x15, 0xfe, 0xe5, 0xfa, 0xec, 0x12, 0xf3, 0xf9, 0x18, 0xfe, 0xfe,
  0x1a, 0x06, 0x00, 0x20, 0xe3, 0xde, 0x1c, 0x1d, 0x0b, 0x1f, 0x1d, 0x30,
  0xe5, 0xc3, 0xbf, 0xf6, 0xe7, 0xe8, 0xd4, 0xdd, 0xe5, 0xf2, 0x12, 0x1c,
  0xf8, 0x0c, 0x03, 0xfe, 0x02, 0x02, 0x05, 0xf4, 0xfb, 0xe0, 0xd8, 0xfa,
  0x16, 0x2f, 0x17, 0x22, 0xdc, 0xdb, 0xed, 0xf1, 0xef, 0xe1, 0xda, 0xcc,
  0xd4, 0xf5, 0x17, 0x11, 0x0e, 0x01, 0x09, 0x02, 0xeb, 0x0b, 0xff, 0xf6,
  0xe6, 0xf8, 0x02, 0x27, 0x1b, 0x2c, 0x25, 0x1e, 0xdf, 0xaa, 0xf2, 0xfa,
  0xf9, 0xec, 0xcf, 0xc4, 0xd0, 0x0c, 0x1c, 0x21, 0x0b, 0x09, 0x14, 0x14,
  0x01, 0x02, 0x04, 0x0d, 0x27, 0x3b, 0x25, 0xfb, 0x0f, 0x25, 0x1e, 0x45,
  0x1b, 0xea, 0xef, 0x11, 0x02, 0xd5, 0xe0, 0xef, 0xfd, 0x3e, 0x3c, 0x1d,
  0x07, 0x28, 0x10, 0x08, 0xf4, 0xf7, 0xf9, 0x05, 0xea, 0x01, 0x0c, 0x18,
  0xf8, 0x1d, 0x08, 0x38, 0x12, 0xee, 0xc7, 0x11, 0x05, 0xde, 0xef, 0x08,
  0x25, 0x2b, 0x34, 0x33, 0x12, 0x13, 0x27, 0xf4, 0xee, 0xec, 0xf3, 0xdf,
  0xb9, 0x14, 0x4c, 0x2a, 0x10, 0x1f, 0x4a, 0x2e, 0x0d, 0x14, 0xf8, 0xef,
  0xe1, 0xf6, 0x23, 0x18, 0x0a, 0x0c, 0x12, 0x08, 0x19, 0x08, 0xf3, 0x00,
  0xf3, 0x0a, 0xca, 0xd8, 0xd8, 0xfc, 0x1e, 0xf6, 0x1f, 0x2a, 0x24, 0x29,
  0x01, 0x12, 0xec, 0xd9, 0xe7, 0x1d, 0x17, 0x12, 0x13, 0x06, 0x1c, 0x0a,
  0xfb, 0xfa, 0xf3, 0xfa, 0x34, 0x2a, 0xea, 0xc2, 0xc1, 0xca, 0xd8, 0x00,
  0x0b, 0x03, 0xf7, 0xf8, 0x02, 0x00, 0xf8, 0xfe, 0xde, 0xe1, 0xe8, 0x05,
  0x0d, 0xfe, 0x10, 0xf5, 0xfd, 0xfe, 0xfa, 0xf7, 0x33, 0xf2, 0xca, 0xba,
  0xaf, 0xc3, 0xd9, 0xfb, 0x06, 0xf7, 0xdb, 0xf3, 0x26, 0x27, 0xed, 0xed,
  0xd7, 0xdc, 0xdd, 0xf7, 0xfe, 0x22, 0xfa, 0xff, 0xf4, 0xfb, 0x0e, 0x13,
  0x1d, 0xce, 0xa4, 0x84, 0xb7, 0xb5, 0xdc, 0xde, 0xf6, 0x03, 0xc3, 0xf3,
  0x29, 0x29, 0xfc, 0x13, 0xe5, 0xf8, 0xe6, 0xfb, 0xf9, 0x00, 0x02, 0xec,
  0x08, 0x16, 0x28, 0x07, 0xfa, 0xcd, 0xa8, 0xdc, 0xf3, 0x0f, 0x2d, 0xd2,
  0x24, 0x18, 0xff, 0xfe, 0x0c, 0x06, 0x01, 0x0d, 0x13, 0x05, 0xf6, 0x12,
  0x16, 0x2a, 0x18, 0x02, 0xfd, 0x19, 0x12, 0xe9, 0xc3, 0x9e, 0xb8, 0xcb,
  0xee, 0x12, 0x2c, 0x15, 0x0c, 0x1d, 0x14, 0x13, 0xf9, 0x04, 0x0c, 0x12,
  0xf6, 0x08, 0x07, 0x22, 0x35, 0x2c, 0x2a, 0x1b, 0x09, 0xf0, 0x04, 0xc8,
  0x9a, 0xab, 0xbb, 0xdc, 0x26, 0x25, 0x07, 0x12, 0xf3, 0xdf, 0xe7, 0xf2,
  0xf6, 0x07, 0x0e, 0x0f, 0x13, 0x0b, 0x18, 0x24, 0x24, 0x1d, 0x2c, 0x12,
  0xfe, 0xfc, 0xe3, 0xaf, 0x91, 0xb0, 0xf1, 0xee, 0x1f, 0x07, 0x10, 0x11,
  0x0d, 0xec, 0xe3, 0xf9, 0xe3, 0xf4, 0xf9, 0x09, 0x08, 0x13, 0x15, 0x12,
  0x25, 0x16, 0x1d, 0x12, 0x0b, 0xe2, 0xbc, 0x97, 0xbe, 0xe1, 0xda, 0xcf,
  0x0f, 0xe7, 0x0e, 0xfa, 0x16, 0x11, 0xed, 0xe5, 0x04, 0xf5, 0xf7, 0xf8,
  0xf3, 0x15, 0x1f, 0x14, 0x0c, 0x0e, 0x1b, 0x27, 0x03, 0xd8, 0xac, 0xc1,
  0x8e, 0xdf, 0xf9, 0xd8, 0xd1, 0xd2, 0x3d, 0xf9, 0x06, 0xfe, 0xfd, 0xbe,
  0x0a, 0x07, 0xf6, 0x05, 0xeb, 0xfb, 0xfd, 0xf7, 0x06, 0x01, 0x06, 0xf6,
  0xd4, 0xc6, 0xa2, 0x9c, 0x92, 0xc6, 0xfb, 0xfe, 0xe1, 0xd6, 0x20, 0xf4,
  0xf6, 0x02, 0x25, 0x21, 0x24, 0x39, 0xfb, 0x05, 0xef, 0xfa, 0xf1, 0xe2,
  0xe7, 0xe5, 0x03, 0xd8, 0xc5, 0xdf, 0x81, 0x9c, 0xb1, 0xde, 0x13, 0x15,
  0x07, 0x16, 0x26, 0x06, 0xff, 0x0c, 0xf2, 0x38, 0x31, 0x1e, 0xff, 0xf6,
  0x0f, 0x05, 0xf5, 0x0f, 0x00, 0xf5, 0xd3, 0xda, 0xdd, 0xc9, 0xbf, 0xd7,
  0xca, 0xee, 0xfd, 0x26, 0x23, 0xf9, 0x09, 0xf4, 0x0d, 0x0b, 0xf5, 0xf0,
  0xd8, 0xe9, 0xf5, 0x12, 0xee, 0xde, 0xe4, 0xeb, 0x08, 0x1d, 0xe1, 0xf7,
  0x19, 0x05, 0xd7, 0xec, 0xf3, 0xe8, 0x16, 0xfd, 0xf8, 0x19, 0xfd, 0xf7,
  0xf9, 0xf7, 0xf5, 0x06, 0x1b, 0x22, 0x23, 0x20, 0x1a, 0x19, 0x0e, 0x01,
  0x03, 0x2d, 0xcb, 0x17, 0x33, 0x03, 0xdb, 0xf0, 0xf7, 0xfc, 0x0b, 0xf9,
  0x09, 0x01, 0xf6, 0x0a, 0x07, 0x03, 0x03, 0x09, 0xf8, 0x0a, 0xf8, 0x00,
  0xff, 0xf8, 0xf8, 0xfc, 0xfc, 0x03, 0xfd, 0x02, 0xf8, 0x0a, 0x04, 0x09,
  0x09, 0xfe, 0x0a, 0xfc, 0xfd, 0x08, 0xfd, 0x02, 0xf7, 0xfc, 0xf7, 0x01,
  0x07, 0xef, 0xdb, 0xdc, 0xce, 0xd6, 0xda, 0xce, 0xce, 0xc8, 0xf5, 0xd2,
  0xe9, 0xe5, 0xe3, 0xe2, 0xef, 0xe6, 0xd4, 0xd8, 0x06, 0xf8, 0x06, 0xf9,
  0xfb, 0xf7, 0xf6, 0xee, 0xe9, 0xf3, 0xd8, 0xc8, 0xba, 0xb0, 0xab, 0x81,
  0x93, 0xb0, 0xc3, 0xca, 0xe2, 0x05, 0xf5, 0xe4, 0xe2, 0xce, 0xe2, 0xd0,
  0xf2, 0xf9, 0xf7, 0x03, 0xff, 0xf9, 0x00, 0xdf, 0xe8, 0xe6, 0xd4, 0xed,
  0xde, 0xbf, 0xb5, 0xcc, 0xdc, 0xce, 0xe7, 0xd1, 0xea, 0x02, 0x05, 0xfe,
  0xe8, 0x05, 0x0b, 0xe8, 0x06, 0xed, 0xf9, 0xf6, 0x01, 0xf9, 0xfd, 0xe9,
  0xf2, 0xd5, 0xfc, 0x13, 0xec, 0xe2, 0xe3, 0x1c, 0x00, 0xef, 0xd4, 0xf8,
  0x18, 0x2b, 0x14, 0xff, 0x0d, 0x24, 0x10, 0x21, 0x38, 0x2d, 0x0c, 0xe4,
  0x03, 0xf7, 0xfa, 0xc5, 0xb6, 0xc6, 0xd2, 0xe1, 0x0a, 0x1c, 0x16, 0x0e,
  0x00, 0xe0, 0xdf, 0xe3, 0xf4, 0x12, 0x14, 0xec, 0xe7, 0x0b, 0x15, 0x13,
  0x1e, 0x19, 0xec, 0x14, 0xff, 0xe7, 0x1d, 0xfe, 0x0b, 0x18, 0xf2, 0xe8,
  0x1a, 0x23, 0x04, 0xfa, 0xee, 0xd9, 0xf3, 0xe6, 0xea, 0x02, 0xf9, 0x00,
  0xec, 0xe7, 0x04, 0xfd, 0x0f, 0x0c, 0x26, 0x07, 0x06, 0xf3, 0x25, 0x13,
  0xfb, 0xfa, 0xff, 0xff, 0x1b, 0x1b, 0x0f, 0xed, 0xd6, 0xdf, 0xf1, 0x08,
  0x07, 0x04, 0x06, 0x00, 0x03, 0x0b, 0x23, 0x07, 0xfd, 0x0c, 0x29, 0x0d,
  0xec, 0x22, 0x27, 0x12, 0xf3, 0x1b, 0x1d, 0x09, 0x19, 0x13, 0x0f, 0xff,
  0xe3, 0xd3, 0xf1, 0x0d, 0xf9, 0xf9, 0x05, 0xdf, 0x00, 0x19, 0x0a, 0x1b,
  0x2d, 0x39, 0x0d, 0x03, 0x13, 0x27, 0x03, 0xf5, 0x05, 0x1e, 0x1f, 0x15,
  0x1e, 0x11, 0x13, 0x16, 0xe9, 0xca, 0xef, 0x19, 0x09, 0x01, 0x05, 0xf7,
  0x09, 0x0d, 0x1b, 0x0c, 0x25, 0x30, 0x02, 0x15, 0x1c, 0x2e, 0xf6, 0xd5,
  0x0c, 0x19, 0x1e, 0x2c, 0x31, 0x2a, 0x28, 0x0e, 0xfb, 0xd3, 0xe9, 0x0e,
  0xfc, 0xf1, 0x00, 0x0e, 0x0e, 0x0f, 0x0b, 0xfb, 0x10, 0x37, 0x2b, 0xff,
  0x27, 0x04, 0x28, 0xe5, 0x07, 0x34, 0x2d, 0x2b, 0x2f, 0x4b, 0x36, 0x35,
  0x04, 0xd5, 0xf8, 0x11, 0x08, 0x03, 0xfe, 0xfe, 0xf8, 0xf9, 0x02, 0xee,
  0xf1, 0x11, 0x42, 0x19, 0x18, 0x41, 0x13, 0xf9, 0x01, 0x15, 0x10, 0x31,
  0x38, 0x30, 0x26, 0x37, 0x0c, 0xe2, 0xee, 0x05, 0xfb, 0xed, 0x00, 0x0a,
  0xfa, 0xf9, 0x07, 0xec, 0xd9, 0x13, 0x62, 0x1e, 0x03, 0x39, 0x42, 0x06,
  0x09, 0x24, 0x0b, 0x25, 0x1e, 0x11, 0x26, 0x3a, 0x03, 0xe1, 0xe8, 0x07,
  0xf2, 0x04, 0x01, 0xff, 0x0d, 0x1b, 0x19, 0xf0, 0xf1, 0x01, 0x1f, 0xf0,
  0x13, 0x26, 0x43, 0xff, 0x1b, 0x2c, 0x11, 0x18, 0x0f, 0x06, 0x1a, 0x25,
  0x16, 0xfa, 0xff, 0xf7, 0xfd, 0x1e, 0x11, 0x1e, 0x05, 0x0c, 0x12, 0x0a,
  0xfc, 0xf0, 0x03, 0xed, 0x21, 0xf4, 0x2d, 0x12, 0xff, 0x05, 0x0f, 0xed,
  0x00, 0x01, 0x13, 0x1c, 0x0d, 0xf7, 0x02, 0xfc, 0x07, 0x21, 0x19, 0x22,
  0x06, 0x03, 0x02, 0x17, 0xdf, 0xeb, 0x37, 0xfb, 0x24, 0x00, 0x01, 0x0f,
  0xe8, 0xe4, 0xe4, 0xec, 0xf9, 0x01, 0x11, 0xf7, 0x0e, 0xf4, 0xf8, 0x15,
  0x1b, 0x2f, 0x12, 0x1d, 0x19, 0x16, 0x12, 0x17, 0xdc, 0xf7, 0x09, 0xe5,
  0xf5, 0xff, 0x26, 0x26, 0x09, 0xf7, 0xfc, 0xe7, 0xed, 0x0d, 0x01, 0xed,
  0xe6, 0xfd, 0x0b, 0x0a, 0x22, 0x20, 0x18, 0x0a, 0x0e, 0xfd, 0xf6, 0xe8,
  0xfc, 0x18, 0x2c, 0xe2, 0x21, 0x03, 0x1e, 0x09, 0x0a, 0xff, 0xde, 0xd3,
  0xe0, 0xe9, 0xde, 0xcc, 0xc9, 0xf3, 0x10, 0xfb, 0xfd, 0xe7, 0xf1, 0xf6,
  0x00, 0xec, 0xd6, 0xdb, 0x12, 0xe0, 0x0b, 0xf9, 0x01, 0x1b, 0x14, 0xe8,
  0xf5, 0xe9, 0xf4, 0xe3, 0xe4, 0xd3, 0xb5, 0xbc, 0xc5, 0xf3, 0x04, 0xf9,
  0xd9, 0xe1, 0xda, 0xd7, 0xdd, 0xc9, 0xbc, 0xe1, 0x0b, 0xfa, 0xfe, 0x04,
  0x03, 0x0c, 0x10, 0xc7, 0xd1, 0xf2, 0xdc, 0xe4, 0xf7, 0xd8, 0xcf, 0xe9,
  0xf9, 0x02, 0x07, 0xff, 0xf7, 0xef, 0xe7, 0xe7, 0xd9, 0xde, 0xf2, 0xec,
  0x03, 0xfc, 0xeb, 0x0b, 0x00, 0xfd, 0xf6, 0xbd, 0xbc, 0xf4, 0xd2, 0xe3,
  0x06, 0x09, 0x04, 0x0a, 0x0a, 0x0a, 0x08, 0x14, 0x0c, 0x01, 0xfd, 0xf5,
  0xe3, 0x10, 0xfd, 0x0b, 0x32, 0x1c, 0xd9, 0x03, 0xf8, 0xf6, 0xec, 0xd8,
  0xce, 0xd9, 0xd7, 0xef, 0xfd, 0xf8, 0x05, 0x01, 0xf8, 0xf3, 0x11, 0x06,
  0x18, 0x16, 0x0f, 0x04, 0xdd, 0xfe, 0xf3, 0x28, 0x4a, 0x08, 0x06, 0x06,
  0xfd, 0x00, 0xf8, 0xf2, 0xfe, 0xdf, 0xec, 0xe1, 0x05, 0x03, 0xfa, 0xfa,
  0xf7, 0xee, 0x01, 0xf4, 0x19, 0x16, 0x12, 0x18, 0xe8, 0x03, 0xeb, 0xff,
  0x39, 0x13, 0x33, 0xf5, 0xfb, 0xfa, 0x0c, 0xfc, 0xf9, 0x06, 0xfb, 0xe4,
  0xfb, 0xf4, 0xf6, 0xfe, 0x08, 0x06, 0x03, 0xfd, 0x13, 0x13, 0x0f, 0x2d,
  0x1e, 0x12, 0x15, 0xf2, 0x0e, 0x08, 0x0a, 0x07, 0xfd, 0x08, 0xda, 0x12,
  0x0d, 0xda, 0xdc, 0xc4, 0xd7, 0xe7, 0xe2, 0x02, 0xee, 0x14, 0x1f, 0x20,
  0x19, 0x41, 0x37, 0x06, 0x0a, 0x31, 0x40, 0x26, 0x25, 0xfb, 0x02, 0xf6,
  0xf9, 0xf8, 0x04, 0x01, 0xe9, 0xde, 0xe2, 0xcd, 0xd5, 0xf2, 0xf1, 0xda,
  0xf3, 0x08, 0x05, 0x0b, 0x11, 0xf9, 0xee, 0x04, 0xd9, 0xf7, 0x10, 0xef,
  0xdf, 0x0c, 0x02, 0xfd, 0x0a, 0x06, 0x04, 0xfe, 0x05, 0x20, 0xf0, 0xe9,
  0xdc, 0x06, 0x0c, 0x04, 0x0a, 0x30, 0xeb, 0x03, 0x14, 0x22, 0x0c, 0xf9,
  0xf9, 0x19, 0x18, 0x33, 0x0b, 0x0b, 0x01, 0x03, 0x05, 0xf8, 0xff, 0x0a,
  0xf8, 0x0c, 0xf5, 0x0a, 0xfa, 0xfe, 0x0a, 0xf6, 0xfa, 0xfb, 0x09, 0xf5,
  0xf6, 0xf4, 0xfc, 0x0a, 0xfb, 0x0c, 0x0c, 0x07, 0xfc, 0xf9, 0xfd, 0x07,
  0x01, 0xff, 0xfc, 0x08, 0xf6, 0x04, 0xfc, 0x03, 0x02, 0x0a, 0x00, 0xea,
  0xf0, 0xd8, 0x25, 0xfc, 0xe5, 0xe2, 0xfb, 0xed, 0x00, 0xff, 0xf7, 0x07,
  0xfe, 0x0b, 0x0c, 0x03, 0x0b, 0xff, 0xff, 0x0c, 0xfa, 0x00, 0x10, 0x0d,
  0x13, 0x1b, 0x24, 0x2a, 0x3b, 0x56, 0x4d, 0x44, 0x0f, 0xf3, 0xf7, 0xf9,
  0x0c, 0x12, 0x09, 0xf4, 0x02, 0x10, 0xfd, 0xfc, 0x00, 0x08, 0x1c, 0x2b,
  0xe6, 0xcb, 0xbc, 0xcd, 0xc1, 0x18, 0x17, 0xf4, 0x09, 0x1f, 0xfb, 0xef,
  0x06, 0x1d, 0xf8, 0xf4, 0xbb, 0xe2, 0x02, 0x09, 0xe1, 0xcd, 0xcf, 0xf9,
  0xfa, 0x04, 0x29, 0xfb, 0x05, 0xeb, 0xd6, 0xde, 0x00, 0x0a, 0x0e, 0xf9,
  0x19, 0x13, 0x04, 0x04, 0x11, 0x1f, 0x1b, 0x17, 0xfe, 0xed, 0x05, 0xc6,
  0xc9, 0xc0, 0xf5, 0xe7, 0x07, 0x07, 0x36, 0xe1, 0xf6, 0xf5, 0xfa, 0xf7,
  0xdc, 0xd5, 0xee, 0xf1, 0xff, 0xea, 0xed, 0xf8, 0xfb, 0xfc, 0x03, 0x15,
  0x0b, 0x14, 0x17, 0x19, 0x05, 0xda, 0xea, 0xd6, 0xfa, 0xe6, 0xd3, 0xc9,
  0xc0, 0xcf, 0xf7, 0xf2, 0xe6, 0xec, 0xd7, 0xe9, 0xf6, 0x02, 0x0d, 0x10,
  0x14, 0x0a, 0xf8, 0xe5, 0xf0, 0x0b, 0x09, 0x07, 0xf2, 0x1d, 0x0f, 0x14,
  0x01, 0xcc, 0xc3, 0xba, 0x9e, 0xc0, 0xcc, 0xec, 0xf8, 0xf4, 0xe3, 0xee,
  0x04, 0xfe, 0x06, 0x26, 0x19, 0xf6, 0xef, 0xf0, 0xf5, 0x00, 0xf9, 0xf3,
  0xc3, 0xed, 0xeb, 0xe9, 0x00, 0xb6, 0xdb, 0xfa, 0xe1, 0xed, 0xf1, 0xf2,
  0x06, 0xe5, 0x04, 0x02, 0xf6, 0x0b, 0x12, 0x10, 0xfb, 0xe5, 0xdd, 0xfb,
  0xe5, 0xf4, 0x01, 0xfe, 0xc9, 0xd8, 0xfb, 0xf1, 0xe9, 0xdd, 0xdb, 0x18,
  0xd5, 0xd4, 0xe6, 0xf5, 0x03, 0xf8, 0x1f, 0x0f, 0x03, 0x09, 0x07, 0x2a,
  0x09, 0xd6, 0xec, 0xe9, 0xd8, 0xeb, 0x05, 0xf0, 0xc4, 0xc9, 0xc0, 0xdc,
  0xf9, 0xe9, 0xdb, 0xf7, 0xd1, 0xd4, 0xea, 0x03, 0x0c, 0x03, 0x1a, 0x20,
  0x17, 0x19, 0x30, 0x2d, 0x0e, 0xf8, 0xf8, 0xeb, 0xb9, 0xed, 0xeb, 0xd8,
  0xa9, 0xb5, 0xea, 0x15, 0xf3, 0x02, 0x15, 0xd6, 0xd6, 0x16, 0xfc, 0x01,
  0xf4, 0xf5, 0x1c, 0x15, 0x2c, 0x26, 0x2d, 0x36, 0x2b, 0x1b, 0x07, 0xec,
  0xdd, 0x02, 0xb7, 0xa0, 0x99, 0xbd, 0x07, 0xe6, 0xfc, 0xf9, 0xf7, 0xed,
  0xfe, 0xff, 0x00, 0xf7, 0x08, 0x0c, 0xfa, 0x1f, 0x1c, 0x31, 0x2d, 0x3f,
  0x46, 0x44, 0x23, 0xed, 0xd2, 0xf6, 0xb6, 0xc3, 0xbf, 0xd0, 0xd3, 0xde,
  0x1a, 0x05, 0xdb, 0x20, 0xff, 0x04, 0xe9, 0xea, 0xf8, 0xf6, 0xf7, 0x16,
  0x14, 0x28, 0x35, 0x43, 0x3b, 0x23, 0x17, 0xce, 0xbc, 0xe2, 0xdd, 0xbc,
  0xc4, 0xd8, 0xea, 0x20, 0xf6, 0xfa, 0x1c, 0x0b, 0xe4, 0x0a, 0xea, 0xe8,
  0xdf, 0xfa, 0xf9, 0xf7, 0x07, 0x34, 0x29, 0x27, 0x21, 0x1b, 0xe2, 0xb0,
  0x98, 0xc0, 0xbd, 0xcd, 0xe1, 0x36, 0x58, 0x1a, 0xf2, 0x03, 0x15, 0x0c,
  0xee, 0xf2, 0xda, 0xdf, 0xf6, 0x09, 0xe9, 0xfe, 0xff, 0x38, 0x30, 0x0e,
  0x13, 0xf1, 0xa3, 0x84, 0x8b, 0xbe, 0xd2, 0xfe, 0x05, 0x54, 0x34, 0x3a,
  0xf6, 0x07, 0x1a, 0xe9, 0xca, 0xdb, 0xce, 0xe1, 0x10, 0x04, 0xf0, 0x14,
  0x0d, 0x0d, 0x1d, 0xfc, 0xfb, 0xbd, 0x8d, 0x89, 0xbc, 0xce, 0xd5, 0x09,
  0x2c, 0x62, 0x59, 0x41, 0xf5, 0x07, 0x03, 0xf6, 0xd2, 0xbc, 0xc3, 0xe3,
  0xf6, 0x04, 0x14, 0x0b, 0x0d, 0x0b, 0x14, 0xe4, 0xbf, 0xa4, 0xb5, 0xba,
  0xf5, 0xf0, 0xf8, 0xdc, 0xf0, 0x1b, 0x03, 0x40, 0xd9, 0x17, 0xf4, 0xeb,
  0xd1, 0x8b, 0xc8, 0xc6, 0xe9, 0x2b, 0x16, 0xfb, 0x01, 0x06, 0x05, 0xcc,
  0xbc, 0xbd, 0xc6, 0xf4, 0x18, 0x12, 0x20, 0x1a, 0x18, 0x1d, 0x00, 0x3c,
  0x09, 0xe4, 0xd1, 0xf6, 0xca, 0x81, 0xce, 0xed, 0xf4, 0x19, 0x1f, 0x0c,
  0xfd, 0x17, 0xec, 0xe3, 0xe2, 0xe0, 0xef, 0x0c, 0x22, 0x02, 0x18, 0x28,
  0x1d, 0x3a, 0x28, 0x21, 0x06, 0x08, 0xe0, 0xf2, 0x10, 0xa4, 0xd7, 0xe3,
  0xf2, 0xf4, 0x1a, 0x0a, 0x24, 0x01, 0xfd, 0xfa, 0x14, 0x0a, 0x12, 0x1c,
  0x23, 0x09, 0x0b, 0x02, 0x18, 0x2c, 0x24, 0x07, 0x13, 0x03, 0x0a, 0x0d,
  0xc7, 0xc2, 0xef, 0xf6, 0xff, 0x02, 0x0f, 0xeb, 0xeb, 0xe4, 0xf5, 0x05,
  0x01, 0x10, 0x10, 0x0c, 0x1b, 0x20, 0x02, 0x11, 0xf7, 0x19, 0x31, 0xfe,
  0x08, 0xff, 0x03, 0x0d, 0xcb, 0x0c, 0xf0, 0xf0, 0x07, 0x02, 0xf9, 0xf1,
  0xe7, 0x00, 0x11, 0x16, 0x01, 0xfc, 0x1c, 0xf2, 0x2d, 0x29, 0xf8, 0xf6,
  0xeb, 0x14, 0x3b, 0xf6, 0x0b, 0xf8, 0x16, 0xe8, 0xc8, 0xfd, 0x05, 0xed,
  0x02, 0x02, 0xfd, 0xe1, 0x18, 0xfd, 0xf6, 0x05, 0x17, 0x19, 0x07, 0x22,
  0x1c, 0x27, 0x1c, 0x14, 0xfa, 0x1d, 0x1c, 0x07, 0xfe, 0xfd, 0x04, 0xc9,
  0xf1, 0x0a, 0x04, 0xe9, 0xf7, 0xee, 0xf9, 0x06, 0xee, 0xd6, 0xed, 0x05,
  0xf8, 0xf3, 0x0c, 0x0c, 0x06, 0x18, 0x0a, 0x17, 0xf8, 0x1c, 0x1f, 0xf9,
  0x06, 0x04, 0x0b, 0x0d, 0xff, 0xf1, 0xe0, 0xff, 0xfd, 0xf3, 0xda, 0xea,
  0xcd, 0xdf, 0xfe, 0xe6, 0xf9, 0x21, 0xd8, 0xbd, 0xe8, 0xdf, 0xf4, 0x03,
  0xee, 0x06, 0xef, 0x0a, 0xff, 0xfe, 0x09, 0x14, 0x12, 0xd7, 0xc4, 0x00,
  0x0f, 0x09, 0xf7, 0xed, 0x12, 0xc0, 0x07, 0x10, 0xf2, 0xf1, 0xeb, 0xec,
  0xe1, 0xeb, 0xd1, 0x14, 0x03, 0xf9, 0x0a, 0x07, 0x03, 0x03, 0xff, 0xf6,
  0xfa, 0xf8, 0xe9, 0xce, 0xe1, 0x03, 0x14, 0x26, 0x08, 0xeb, 0x45, 0x1c,
  0x27, 0x0f, 0x08, 0xf1, 0xec, 0xe9, 0xd7, 0xf7, 0x0a, 0xf8, 0xf4, 0x0a,
  0xf7, 0xf8, 0xf8, 0x07, 0x06, 0x06, 0x05, 0x03, 0x05, 0x08, 0xfe, 0xfb,
  0x05, 0xfb, 0xff, 0x02, 0x07, 0x03, 0x03, 0xf9, 0x00, 0xfc, 0xfa, 0x00,
  0x06, 0x00, 0xf8, 0x04, 0xfa, 0xf7, 0x04, 0xf8, 0x08, 0xf7, 0xfb, 0xfd,
  0xfd, 0x10, 0x02, 0x00, 0xf4, 0xff, 0x20, 0x1c, 0x11, 0x01, 0xfa, 0xfb,
  0x00, 0x02, 0xf9, 0x09, 0x02, 0x04, 0x01, 0x03, 0xff, 0x00, 0xff, 0xf4,
  0x08, 0x06, 0x00, 0xf7, 0x0d, 0x03, 0x14, 0x26, 0x05, 0xfd, 0x19, 0x32,
  0x29, 0x16, 0x25, 0x27, 0x28, 0x12, 0x14, 0x1b, 0x06, 0xfd, 0x03, 0x05,
  0xf7, 0xfd, 0x1c, 0x12, 0xfd, 0x22, 0x17, 0x21, 0x1f, 0x12, 0x0b, 0x09,
  0x0b, 0xf9, 0x01, 0x0d, 0x14, 0x04, 0xf1, 0xd9, 0xf0, 0xfd, 0x03, 0xf3,
  0x03, 0xfb, 0xfa, 0x05, 0xff, 0x02, 0x1a, 0x32, 0x1d, 0x1e, 0x23, 0x1e,
  0x20, 0x18, 0x21, 0x22, 0x1f, 0x1b, 0x16, 0x26, 0x1b, 0x06, 0x1a, 0x07,
  0xf5, 0xfd, 0x0d, 0xf3, 0xfe, 0x11, 0x0b, 0x07, 0xf9, 0xff, 0x2a, 0x1c,
  0x27, 0x2d, 0x27, 0x1d, 0x11, 0x14, 0x16, 0x18, 0x1a, 0x11, 0x0f, 0x0c,
  0x0f, 0x00, 0xfc, 0xf5, 0x00, 0xf0, 0xf9, 0x04, 0xff, 0x00, 0xe8, 0xf6,
  0xfa, 0x0c, 0xe2, 0xf9, 0x0a, 0x0b, 0x15, 0xff, 0xff, 0x03, 0x07, 0x12,
  0x04, 0x0e, 0x05, 0x0b, 0x0b, 0x0d, 0x01, 0xfd, 0xfb, 0xf2, 0xee, 0x08,
  0xf4, 0x05, 0x0c, 0x0d, 0xfd, 0x11, 0xd2, 0xfa, 0x09, 0x10, 0x14, 0x01,
  0x06, 0x02, 0x01, 0x06, 0x0f, 0xfc, 0x0f, 0x08, 0x03, 0x11, 0xf0, 0xfb,
  0x09, 0xff, 0xf7, 0xdb, 0xe5, 0x33, 0x0d, 0x10, 0xf8, 0xcd, 0xdf, 0xe8,
  0x08, 0x0a, 0xfe, 0x02, 0x0c, 0x0a, 0x06, 0xfa, 0xf9, 0xf6, 0xff, 0x0a,
  0x02, 0x0b, 0xf8, 0xf0, 0xf7, 0x02, 0x02, 0xdd, 0xec, 0xf8, 0x13, 0x00,
  0xea, 0xe7, 0xdf, 0xe1, 0x04, 0x18, 0x0a, 0x19, 0x04, 0xf8, 0x00, 0xf9,
  0xf7, 0xf8, 0xfd, 0x1a, 0x0f, 0xf2, 0xf1, 0xf6, 0xec, 0xea, 0xfe, 0xef,
  0xf8, 0xf2, 0x16, 0x06, 0xf6, 0xf7, 0xd8, 0xf1, 0xe9, 0xfc, 0xf8, 0x02,
  0x10, 0xf8, 0x00, 0xfa, 0x0e, 0x06, 0x0f, 0x08, 0xfc, 0xf7, 0xec, 0xf1,
  0xed, 0x03, 0x02, 0xe2, 0xfa, 0xfe, 0x10, 0x0d, 0xfa, 0xe4, 0xe2, 0xf3,
  0xf9, 0xed, 0xf7, 0xf5, 0x02, 0xfb, 0x0f, 0x0d, 0x1f, 0x0d, 0x13, 0x06,
  0x05, 0x10, 0x0a, 0xfd, 0xff, 0xf2, 0xe9, 0xd1, 0xf1, 0xfa, 0x06, 0x24,
  0xff, 0xdc, 0xeb, 0xec, 0xed, 0xf7, 0x05, 0xfe, 0x02, 0x13, 0x2b, 0x21,
  0x07, 0xff, 0x04, 0xfc, 0x01, 0xf7, 0xfa, 0x00, 0xfa, 0xf5, 0xd8, 0xe5,
  0xcb, 0xf6, 0x0a, 0x0d, 0x10, 0xde, 0xd8, 0xf7, 0xf2, 0xf2, 0x09, 0x1a,
  0x1d, 0x1e, 0x18, 0x0d, 0x0e, 0x0a, 0x0a, 0x0c, 0x03, 0xfe, 0xf2, 0xef,
  0xf4, 0xeb, 0xe2, 0xed, 0xf5, 0xf7, 0x10, 0xe6, 0xe6, 0x05, 0xea, 0xed,
  0xdd, 0xbf, 0xe1, 0x0e, 0xf0, 0xf8, 0x03, 0xfc, 0x11, 0x0f, 0x1c, 0x04,
  0xfd, 0xfa, 0x00, 0xf0, 0xef, 0xfe, 0xf4, 0x01, 0x05, 0xfc, 0x18, 0xf6,
  0xf2, 0x1a, 0x2f, 0x00, 0xd9, 0xc1, 0xc9, 0xac, 0xc2, 0xe5, 0xf7, 0x10,
  0x03, 0x09, 0x1a, 0xfe, 0xff, 0xfa, 0xf7, 0xf8, 0xfa, 0xfd, 0x06, 0x29,
  0x1e, 0x13, 0x2c, 0x0e, 0xdd, 0x1f, 0x3e, 0x18, 0xce, 0xd1, 0xc0, 0xb1,
  0x90, 0xae, 0xce, 0xd5, 0xe7, 0xed, 0x03, 0xea, 0xf3, 0xf6, 0x12, 0xf6,
  0xf0, 0xff, 0x13, 0x1e, 0x2a, 0xf8, 0x18, 0x09, 0xfe, 0x1c, 0x2b, 0xe6,
  0xc9, 0xc6, 0xc4, 0xc8, 0xb2, 0x9d, 0x87, 0x81, 0x9a, 0xc9, 0xe7, 0xef,
  0xf6, 0xee, 0xf5, 0xfc, 0xea, 0xfe, 0xfc, 0x15, 0x14, 0xee, 0xf6, 0x14,
  0xe5, 0x1e, 0x11, 0xfe, 0xd0, 0xe1, 0xea, 0xdc, 0xe4, 0xd9, 0xc3, 0xab,
  0x92, 0xcc, 0xea, 0x01, 0xfc, 0xfd, 0xf2, 0x03, 0x04, 0x07, 0x10, 0x0b,
  0x0d, 0xf9, 0xe9, 0x08, 0x10, 0xe0, 0xf9, 0x0b, 0xe2, 0xfe, 0xf8, 0xfa,
  0xf5, 0xf4, 0xf9, 0xe3, 0xe5, 0xf5, 0xfa, 0xfc, 0x11, 0xf4, 0xff, 0xf4,
  0x08, 0x04, 0x02, 0x0b, 0x19, 0x07, 0xee, 0x03, 0x05, 0x0a, 0xfd, 0x0f,
  0xeb, 0x01, 0x07, 0x06, 0x16, 0x0e, 0x14, 0x17, 0x11, 0x03, 0x10, 0xfe,
  0x0d, 0x07, 0x11, 0xfe, 0x02, 0xf6, 0x0f, 0x0e, 0x14, 0xfb, 0x0a, 0xfe,
  0x09, 0x21, 0x01, 0x08, 0x0b, 0x12, 0x0f, 0x22, 0x17, 0x11, 0x2c, 0x1b,
  0x1c, 0x18, 0x05, 0x0e, 0xfd, 0xf8, 0x0b, 0x07, 0xfc, 0xf3, 0xf3, 0xfc,
  0xec, 0xf3, 0x14, 0x02, 0x0b, 0x05, 0xff, 0x06, 0x14, 0x27, 0x16, 0x04,
  0x1a, 0x14, 0x1a, 0x13, 0x00, 0x06, 0x0c, 0x09, 0xf6, 0x06, 0x15, 0x0f,
  0x0b, 0x08, 0x08, 0x10, 0xdb, 0xec, 0x13, 0x05, 0x06, 0x02, 0x35, 0x25,
  0x0c, 0x28, 0x07, 0x0d, 0x1c, 0x17, 0x11, 0x1d, 0x11, 0x08, 0x06, 0x01,
  0x0a, 0x09, 0x14, 0x05, 0x0d, 0x17, 0xef, 0xfb, 0x13, 0x07, 0x12, 0xfd,
  0xf9, 0x01, 0xf6, 0x11, 0x22, 0x23, 0x19, 0x15, 0x12, 0x0c, 0x01, 0xfd,
  0xf7, 0xf5, 0xfc, 0xf9, 0xfe, 0xfd, 0xf7, 0xde, 0xee, 0xfd, 0xf7, 0x20,
  0x15, 0x29, 0x13, 0xfe, 0x01, 0xf9, 0x17, 0xea, 0x06, 0x23, 0x12, 0x1a,
  0x19, 0x06, 0x0c, 0x01, 0x10, 0x08, 0x08, 0xf1, 0x00, 0xf0, 0xf0, 0xe3,
  0xef, 0xe8, 0xfd, 0x14, 0x17, 0x14, 0x00, 0x06, 0xfe, 0x02, 0x03, 0x16,
  0x0d, 0x00, 0xf3, 0x03, 0xdb, 0xf6, 0x04, 0x15, 0xee, 0xf5, 0xfe, 0x0c,
  0x08, 0x1a, 0x21, 0x13, 0xfc, 0xf8, 0xe4, 0xef, 0xf9, 0x02, 0x02, 0x01,
  0x01, 0x00, 0x05, 0x02, 0xfc, 0xf2, 0xde, 0xd9, 0xcf, 0xe6, 0xe5, 0xeb,
  0xd8, 0xdd, 0x07, 0x0c, 0x04, 0xd1, 0xfa, 0xf5, 0xdc, 0xe7, 0xf7, 0xfd,
  0x07, 0x03, 0x08, 0xfc, 0xf7, 0x0b, 0x08, 0xfc, 0x0b, 0xff, 0xfe, 0x04,
  0x03, 0xf5, 0x04, 0xfd, 0xf9, 0xf7, 0xf7, 0xff, 0xff, 0xf5, 0xf6, 0xfc,
  0xf5, 0xff, 0x05, 0x0b, 0x09, 0x03, 0xfb, 0x0b, 0x09, 0x02, 0x09, 0xfe,
  0xf6, 0x00, 0xf1, 0xef, 0xed, 0xf4, 0xe8, 0xe0, 0xe6, 0xf1, 0xf5, 0x02,
  0x00, 0x02, 0xf2, 0xee, 0xe3, 0xef, 0xfb, 0xf8, 0x08, 0x01, 0x03, 0x08,
  0x03, 0xf7, 0xff, 0x06, 0xf8, 0x00, 0xf0, 0xdc, 0xd9, 0xe0, 0xbd, 0xbf,
  0xaa, 0xb6, 0xbd, 0xe2, 0xf9, 0xf4, 0xf0, 0xf8, 0xfe, 0xed, 0xf3, 0xf0,
  0x0f, 0xfc, 0xf8, 0x05, 0xfe, 0x03, 0xf1, 0xfc, 0x16, 0x1f, 0x2f, 0x1f,
  0x25, 0xfb, 0xfc, 0xe2, 0xec, 0xba, 0xd5, 0xfe, 0xd8, 0xc1, 0xbf, 0xe4,
  0x00, 0x07, 0x0d, 0x0f, 0x4f, 0x15, 0x02, 0xf8, 0x03, 0xff, 0xfc, 0x22,
  0x00, 0xf4, 0x10, 0x18, 0xde, 0xd4, 0xf2, 0xf1, 0xec, 0xdc, 0xec, 0xff,
  0xeb, 0x0c, 0x14, 0xfa, 0x08, 0x0a, 0x23, 0x20, 0x40, 0x44, 0x1b, 0xf8,
  0xf6, 0x04, 0xe0, 0xf4, 0xfc, 0xfc, 0xfa, 0xf3, 0xf3, 0xfb, 0x08, 0x21,
  0x1b, 0x0f, 0xfb, 0xef, 0x0b, 0x1c, 0x2d, 0x17, 0x2d, 0x14, 0x17, 0x16,
  0x35, 0x51, 0x1d, 0xee, 0x05, 0x07, 0x20, 0x17, 0x01, 0xda, 0xee, 0xfd,
  0x1a, 0x23, 0x29, 0x32, 0x2e, 0x3f, 0x3e, 0x4e, 0x3e, 0x40, 0x2b, 0x08,
  0x11, 0x08, 0x0b, 0x17, 0x3c, 0x34, 0x11, 0x13, 0x04, 0x12, 0x1a, 0x11,
  0xd4, 0xd8, 0xf5, 0xf6, 0x29, 0x12, 0x10, 0x26, 0x2d, 0x45, 0x50, 0x51,
  0x2e, 0x13, 0x06, 0xee, 0xf2, 0xf8, 0xdd, 0xcf, 0xd5, 0x02, 0x10, 0x16,
  0xfd, 0x05, 0xef, 0xee, 0xbe, 0xed, 0x0e, 0xf0, 0x16, 0x16, 0x0f, 0x33,
  0x1f, 0x26, 0x27, 0x13, 0x0f, 0xeb, 0x03, 0xfd, 0xd3, 0xe9, 0xee, 0xc9,
  0xcc, 0xea, 0xeb, 0x02, 0xfa, 0xea, 0x00, 0xed, 0x0e, 0xfd, 0x0a, 0xfb,
  0x0b, 0x17, 0x0a, 0x09, 0xf4, 0xec, 0xe3, 0xcd, 0xbd, 0xdf, 0xff, 0xf9,
  0xe4, 0xd2, 0xeb, 0xe1, 0xe2, 0xd7, 0xd8, 0x08, 0x03, 0xdb, 0x06, 0x1e,
  0x12, 0x16, 0x29, 0x0f, 0x1e, 0x11, 0xf6, 0xdc, 0xd4, 0xc4, 0xc8, 0xc3,
  0xe6, 0xe4, 0x09, 0xfb, 0xf9, 0x02, 0x05, 0xee, 0xcc, 0xe1, 0xf5, 0x0c,
  0xfe, 0xc9, 0x21, 0x04, 0x37, 0x20, 0x27, 0x07, 0x06, 0xef, 0xe6, 0xe5,
  0x06, 0x03, 0xfc, 0x01, 0x06, 0x2f, 0x1a, 0x06, 0x0b, 0xfd, 0x10, 0xf1,
  0xe5, 0xdd, 0x14, 0xfa, 0xe7, 0xdb, 0x27, 0x19, 0x30, 0x22, 0x03, 0x05,
  0xf7, 0xe6, 0xe3, 0xed, 0xfa, 0x08, 0x11, 0x0d, 0x1f, 0x22, 0x1a, 0x16,
  0x0b, 0x06, 0xf3, 0xf7, 0xaa, 0xa9, 0xfa, 0xf3, 0xdd, 0x0b, 0x23, 0x19,
  0x0b, 0x08, 0xef, 0x00, 0xf9, 0xdc, 0xeb, 0xf8, 0xfe, 0x10, 0x08, 0x05,
  0x14, 0x0c, 0x12, 0x00, 0x2a, 0x03, 0xff, 0xe5, 0xd1, 0xb2, 0xee, 0x07,
  0x08, 0x1c, 0x0f, 0x13, 0xe9, 0xbf, 0xfb, 0xf6, 0x08, 0xea, 0x07, 0xf8,
  0xf6, 0xfc, 0x00, 0x0b, 0x02, 0xff, 0xf9, 0xe7, 0x0b, 0x02, 0x00, 0x19,
  0x00, 0xe5, 0x06, 0xea, 0x12, 0x18, 0xe4, 0xfe, 0xe3, 0xcb, 0xf6, 0xfc,
  0x01, 0xfa, 0xfd, 0xeb, 0xf3, 0x01, 0xea, 0x08, 0xfa, 0x02, 0x01, 0xf6,
  0xff, 0x0f, 0x07, 0x02, 0x18, 0xd9, 0xea, 0x17, 0xfa, 0x17, 0x14, 0x09,
  0xf1, 0xd3, 0xdd, 0xec, 0xed, 0x09, 0xfd, 0xf5, 0x07, 0x09, 0xf5, 0xf1,
  0xf2, 0x00, 0x12, 0x05, 0x00, 0x0a, 0x17, 0xfb, 0x06, 0xcc, 0xde, 0x22,
  0x0a, 0x19, 0x01, 0x29, 0xed, 0xe7, 0xea, 0xef, 0x03, 0xf1, 0xe7, 0x07,
  0x1d, 0x04, 0xed, 0xf5, 0xe8, 0xf4, 0x02, 0x01, 0xf0, 0x01, 0xf1, 0xf3,
  0x03, 0xfb, 0xef, 0x32, 0x0d, 0xea, 0x22, 0x25, 0x23, 0xe8, 0xf7, 0xdc,
  0xe9, 0xf0, 0xfa, 0x07, 0xef, 0xe1, 0xe3, 0xf7, 0xf9, 0x0a, 0xf3, 0x1a,
  0x0d, 0x19, 0x00, 0xf5, 0x02, 0xfb, 0x38, 0x09, 0xf8, 0xf4, 0x2c, 0x22,
  0x27, 0x14, 0xeb, 0xe9, 0xf4, 0xce, 0xf4, 0xfd, 0x00, 0xee, 0xf6, 0xe9,
  0xed, 0xfa, 0x13, 0x25, 0x0f, 0x0e, 0x04, 0x0a, 0x03, 0xf8, 0x3d, 0xf6,
  0xfe, 0xfb, 0x27, 0x42, 0x33, 0x40, 0x18, 0xef, 0x00, 0xfc, 0xe0, 0xd1,
  0xe7, 0xfc, 0xfd, 0xf3, 0x04, 0xfe, 0x02, 0x07, 0x07, 0xe4, 0xf4, 0x11,
  0x24, 0x2f, 0x13, 0xfc, 0xef, 0xec, 0x0f, 0x0e, 0x16, 0x2c, 0x14, 0x21,
  0x0d, 0xff, 0xf3, 0xe8, 0xf4, 0xf5, 0xf0, 0xf1, 0x01, 0xf3, 0xf2, 0xfb,
  0xfc, 0x14, 0xee, 0x0b, 0x20, 0x1d, 0x34, 0xfc, 0xee, 0xfd, 0x0c, 0x25,
  0x0b, 0xf7, 0xfd, 0x07, 0x0c, 0xfa, 0xfa, 0x00, 0xf3, 0xea, 0xfb, 0x06,
  0xfc, 0xf1, 0xe5, 0xf5, 0x0d, 0xea, 0x03, 0x25, 0x15, 0x04, 0xfb, 0xf6,
  0xfd, 0x0a, 0x14, 0x4a, 0x39, 0x41, 0x26, 0xfa, 0x15, 0x0e, 0x1c, 0x26,
  0xfd, 0xfb, 0x02, 0xee, 0xff, 0xf6, 0xf5, 0xf9, 0x04, 0xf3, 0x16, 0x1b,
  0x34, 0xfa, 0xe7, 0xf5, 0x06, 0xfb, 0xf2, 0x34, 0x1e, 0x0f, 0x1d, 0x31,
  0x0e, 0xf0, 0xfd, 0x15, 0x0b, 0x18, 0x15, 0x1d, 0x0e, 0x0d, 0x03, 0x0d,
  0x1b, 0x0c, 0x14, 0x34, 0x37, 0xd8, 0xd3, 0x00, 0xf5, 0xfa, 0x22, 0xff,
  0x0c, 0x3e, 0x3f, 0x31, 0x34, 0x14, 0x29, 0x22, 0x42, 0x44, 0x3a, 0x4e,
  0x3a, 0x33, 0x2a, 0x3d, 0x38, 0x21, 0x11, 0x23, 0x4d, 0x12, 0xfa, 0x07,
  0x0a, 0x08, 0x03, 0x0e, 0xff, 0x29, 0x37, 0x20, 0x42, 0x4f, 0x65, 0x6a,
  0x46, 0x7a, 0x7f, 0x2b, 0x37, 0x63, 0x64, 0x50, 0x75, 0x56, 0x3e, 0x36,
  0x1b, 0xf2, 0x08, 0x02, 0x03, 0xfa, 0xf9, 0x08, 0x03, 0xfa, 0xe7, 0xea,
  0xdb, 0xd3, 0xde, 0xf3, 0xd8, 0x05, 0x27, 0x19, 0x27, 0x08, 0x0a, 0x12,
  0x22, 0x18, 0x0c, 0xf1, 0xf9, 0xfc, 0x08, 0x08, 0xf4, 0x05, 0xfe, 0x0d,
  0xf3, 0xf8, 0xfa, 0x0d, 0x09, 0xf5, 0x07, 0x05, 0x04, 0xf1, 0xfa, 0x07,
  0xf5, 0xf5, 0x06, 0x03, 0x02, 0xff, 0x08, 0xf6, 0x0c, 0x04, 0x0c, 0xf7,
  0x05, 0x02, 0xf8, 0xfc, 0x01, 0xe9, 0xf6, 0xcc, 0xdc, 0xd1, 0xd3, 0xc4,
  0xd3, 0x0b, 0x2b, 0x0f, 0xf0, 0xb7, 0xe5, 0xee, 0xec, 0xdb, 0xe5, 0x03,
  0x0a, 0x0c, 0x0d, 0x08, 0xf8, 0xf7, 0xf2, 0x03, 0xf1, 0xe3, 0xd0, 0xd0,
  0xa0, 0x96, 0xd9, 0xe3, 0xee, 0x22, 0x38, 0x2c, 0x15, 0xf1, 0xd8, 0xfe,
  0x03, 0xf6, 0xe0, 0xd2, 0xed, 0x19, 0xfc, 0x01, 0x0b, 0x08, 0xf6, 0xdd,
  0xc6, 0xd8, 0xd0, 0xed, 0xde, 0xca, 0xdd, 0x00, 0xde, 0xd3, 0x4f, 0x74,
  0x4b, 0x06, 0xc9, 0xd6, 0xce, 0xb8, 0xc7, 0xd9, 0xd7, 0xe8, 0xc6, 0x0d,
  0x08, 0x03, 0x03, 0xe2, 0x06, 0xe2, 0xf6, 0x09, 0x06, 0x07, 0x04, 0x0b,
  0xfa, 0x16, 0x25, 0x42, 0x4a, 0x38, 0x18, 0x17, 0x24, 0xfe, 0x0e, 0xc6,
  0x90, 0xa5, 0xb1, 0xcc, 0xfa, 0xfa, 0xe8, 0xfa, 0xdc, 0xe8, 0xe3, 0xe1,
  0xfa, 0xd1, 0xfe, 0xd0, 0xc8, 0xdd, 0xf9, 0x0e, 0x0e, 0x47, 0x5a, 0x49,
  0x18, 0x36, 0x1c, 0x14, 0xdd, 0xb3, 0xce, 0xd0, 0xff, 0x20, 0xf7, 0x3b,
  0xdb, 0xf5, 0xf8, 0xe8, 0xe7, 0xfa, 0xf9, 0xbe, 0xe7, 0xd9, 0xf4, 0xe9,
  0x0d, 0x54, 0x4e, 0x24, 0x23, 0x0c, 0x09, 0xe9, 0xd2, 0x99, 0xda, 0x14,
  0x02, 0x56, 0xbc, 0x23, 0x17, 0x05, 0x06, 0xe6, 0xf3, 0xf6, 0xf5, 0xfc,
  0x0b, 0xea, 0xe3, 0xfe, 0x3d, 0x57, 0x50, 0x50, 0x32, 0x11, 0x1c, 0xfc,
  0xe6, 0xad, 0xbd, 0x13, 0x24, 0x14, 0xf7, 0x26, 0x0c, 0xf6, 0xf2, 0xec,
  0xeb, 0xf7, 0xfd, 0x00, 0xf0, 0xbd, 0xae, 0x08, 0x47, 0x5e, 0x40, 0x36,
  0x16, 0x04, 0x14, 0x04, 0xbb, 0x81, 0xbd, 0x05, 0x00, 0x10, 0x06, 0x28,
  0xe5, 0xd8, 0xf8, 0xf1, 0x09, 0xeb, 0xf3, 0xcd, 0xe5, 0xaf, 0x8e, 0xec,
  0x66, 0x44, 0x35, 0x1e, 0x16, 0x04, 0x0f, 0x00, 0xb5, 0x9b, 0x92, 0xfb,
  0x0d, 0x1e, 0x32, 0x46, 0xbf, 0xdf, 0xef, 0xea, 0x0a, 0xfe, 0xe6, 0xf0,
  0xc9, 0x9d, 0x9c, 0xf9, 0x56, 0x7c, 0x27, 0x1a, 0x1d, 0x03, 0x27, 0xff,
  0xc2, 0xc5, 0xaf, 0xe7, 0x03, 0xfc, 0xf1, 0x14, 0xc7, 0xff, 0xef, 0xe3,
  0x01, 0x01, 0xf2, 0xd5, 0xd5, 0xc6, 0xc1, 0x05, 0x22, 0x2b, 0x26, 0x0b,
  0x07, 0xf9, 0x06, 0xfa, 0xfa, 0xf6, 0xbc, 0xf1, 0xfc, 0x18, 0xfd, 0xe9,
  0xdb, 0x0d, 0x14, 0x0a, 0x0e, 0xf7, 0x05, 0xdb, 0xe1, 0xd1, 0xe5, 0xf9,
  0xff, 0x0f, 0xe6, 0xd0, 0xe9, 0xf2, 0xec, 0xee, 0x14, 0xf3, 0xd8, 0xe1,
  0x0d, 0x1d, 0xda, 0x05, 0x10, 0x10, 0x2b, 0xf3, 0xfa, 0xf0, 0xe8, 0xe2,
  0xbf, 0xe5, 0xed, 0xe6, 0xec, 0xf4, 0xea, 0xc6, 0xe8, 0xf7, 0xff, 0xee,
  0xe5, 0x1f, 0xdf, 0xf3, 0xee, 0xef, 0xec, 0x10, 0x23, 0x1c, 0x20, 0x22,
  0x0c, 0xf2, 0xe6, 0xe7, 0xdf, 0xdc, 0xd8, 0xdb, 0xf4, 0x07, 0xea, 0xec,
  0xf6, 0x16, 0xf3, 0xe6, 0xf9, 0x23, 0x22, 0xfe, 0xea, 0xe1, 0x52, 0xfd,
  0x23, 0x17, 0x01, 0x11, 0x16, 0xf8, 0xf9, 0xfc, 0xd5, 0xe0, 0xc6, 0xee,
  0x0d, 0x06, 0x00, 0x03, 0x13, 0x12, 0x00, 0xf6, 0xe8, 0xe8, 0x3e, 0x13,
  0xf8, 0x05, 0x5e, 0xef, 0x20, 0x18, 0x10, 0x14, 0x09, 0x23, 0x16, 0x05,
  0xf1, 0xf6, 0xf2, 0xf3, 0x03, 0x06, 0x23, 0x29, 0x18, 0x0f, 0xf6, 0xee,
  0x11, 0xef, 0x40, 0x14, 0x01, 0x03, 0x69, 0xfe, 0x15, 0x15, 0xf4, 0x14,
  0x0b, 0x08, 0x1e, 0x0a, 0xfe, 0xf5, 0xec, 0x01, 0xfb, 0x11, 0x22, 0x16,
  0xf7, 0xfd, 0xf3, 0x00, 0xfb, 0x1c, 0x0d, 0x00, 0x08, 0x35, 0x60, 0x11,
  0xfb, 0x0e, 0x02, 0x09, 0x28, 0x2f, 0x04, 0x05, 0xf7, 0xfd, 0x02, 0x06,
  0x18, 0x1d, 0x3e, 0x1a, 0xf7, 0x09, 0x07, 0x07, 0x14, 0x23, 0xf8, 0x01,
  0x19, 0x38, 0xf1, 0x17, 0xfd, 0x11, 0x17, 0x3d, 0x05, 0x20, 0x10, 0x0c,
  0xeb, 0x0a, 0x02, 0x0b, 0x0a, 0x26, 0x14, 0x13, 0xf9, 0x06, 0x19, 0x0f,
  0xfc, 0x35, 0xf5, 0x15, 0x0b, 0x37, 0x22, 0x33, 0xfc, 0xf6, 0x33, 0x1f,
  0x07, 0x08, 0x19, 0x14, 0x14, 0xfd, 0x07, 0x07, 0x14, 0x0c, 0x22, 0x2e,
  0x28, 0x2a, 0x1b, 0x15, 0x2a, 0x09, 0x23, 0x19, 0x1d, 0x2f, 0x56, 0x4f,
  0xff, 0x03, 0x1e, 0x1c, 0x18, 0x0c, 0x1c, 0x01, 0x06, 0x18, 0xf8, 0x05,
  0x07, 0x0c, 0x1a, 0x1c, 0x0e, 0x1f, 0x39, 0x3b, 0x3a, 0xe4, 0x32, 0xfa,
  0x13, 0x14, 0x2f, 0x05, 0xfd, 0x33, 0x2a, 0x06, 0x14, 0x11, 0x0a, 0x14,
  0x00, 0x13, 0x01, 0xf0, 0xf6, 0x0b, 0x06, 0xfa, 0x07, 0x39, 0x1e, 0xfe,
  0x08, 0xea, 0x10, 0x04, 0xfe, 0xf8, 0x4c, 0xee, 0xc8, 0xfb, 0x14, 0x1e,
  0x15, 0x0f, 0x04, 0x2b, 0x1e, 0x1a, 0x04, 0xfc, 0xf0, 0xf0, 0x02, 0x01,
  0x13, 0x16, 0xcf, 0xc7, 0xed, 0xf4, 0x20, 0x02, 0x07, 0x08, 0x0e, 0xfc,
  0x11, 0xeb, 0xe6, 0xf4, 0x06, 0x1b, 0xf2, 0x11, 0x0a, 0x05, 0xf3, 0xf4,
  0x00, 0xf9, 0x08, 0xd9, 0xcb, 0x0a, 0xec, 0xf6, 0x03, 0x33, 0x0c, 0xff,
  0x0d, 0x03, 0xe9, 0xee, 0x1e, 0x00, 0xe9, 0xca, 0x04, 0xd8, 0xbc, 0xdc,
  0x0a, 0x1d, 0xe2, 0xd9, 0x04, 0xee, 0xdf, 0xe2, 0xd4, 0x9f, 0x81, 0xce,
  0xe7, 0xff, 0x1e, 0xf8, 0x09, 0x03, 0x09, 0xff, 0x39, 0x10, 0x15, 0x07,
  0xd8, 0xdf, 0xe7, 0xcd, 0x06, 0xf8, 0x02, 0xdd, 0xdd, 0xe6, 0xcd, 0xdc,
  0xbb, 0xb8, 0xed, 0xf3, 0x02, 0x0b, 0xfe, 0x04, 0xf3, 0xf5, 0x03, 0xfd,
  0xf5, 0x13, 0xf6, 0xfc, 0xf7, 0x0f, 0x01, 0xed, 0xf6, 0x07, 0x28, 0x33,
  0x06, 0x09, 0xfa, 0xef, 0xdf, 0xf1, 0x02, 0x19, 0x08, 0xfe, 0x07, 0xf7,
  0xf3, 0x0f, 0xf3, 0xf7, 0x0b, 0xfd, 0xf9, 0x03, 0xf8, 0xf6, 0xfb, 0xf5,
  0x07, 0xfe, 0x05, 0x03, 0x06, 0xf2, 0xf4, 0xfc, 0xfa, 0x0b, 0x0b, 0xfa,
  0x00, 0xf3, 0x0b, 0xf7, 0xf9, 0xf4, 0x07, 0xf3, 0xfc, 0xfd, 0xf8, 0xf5,
  0x0a, 0x0a, 0x00, 0xfe, 0xfa, 0x06, 0xf0, 0xfa, 0xf6, 0xf0, 0xff, 0x03,
  0x03, 0xfe, 0xfa, 0x01, 0xf2, 0x07, 0x04, 0xf7, 0xfb, 0x0e, 0x06, 0xf1,
  0xf9, 0xf2, 0x07, 0xe4, 0x03, 0xfd, 0xf3, 0xb2, 0xef, 0xd0, 0xed, 0xd1,
  0xae, 0xb8, 0xd0, 0xbd, 0xb8, 0xc7, 0xd7, 0xf7, 0x18, 0x1c, 0x0d, 0xfa,
  0xff, 0x0b, 0x1c, 0x08, 0x19, 0xc1, 0xc8, 0xca, 0xe6, 0xfe, 0x01, 0xd9,
  0x24, 0x0a, 0xee, 0xef, 0xc9, 0xc7, 0xf4, 0xfd, 0xfd, 0x10, 0xf2, 0xd9,
  0x0b, 0x31, 0x2b, 0xfc, 0xfc, 0xf4, 0x2a, 0xdb, 0xcf, 0xb4, 0xf0, 0xf8,
  0xff, 0xf7, 0xf4, 0x02, 0xda, 0xfd, 0xda, 0xe5, 0xec, 0xf4, 0x07, 0x1e,
  0x09, 0x0c, 0x03, 0xfd, 0x10, 0x21, 0x15, 0xf3, 0xfd, 0x01, 0x2a, 0xcb,
  0x12, 0xe0, 0xfc, 0xfd, 0x01, 0x02, 0xfc, 0xe3, 0xcf, 0xfa, 0x0a, 0x03,
  0x1b, 0x06, 0x03, 0xfd, 0x10, 0x2f, 0x20, 0x0d, 0x26, 0x5c, 0x2a, 0x07,
  0xfd, 0x14, 0x03, 0x08, 0x2f, 0x0b, 0x07, 0xfb, 0x08, 0x01, 0x1b, 0xf8,
  0xfc, 0xf0, 0xfb, 0x0d, 0xf7, 0x12, 0x06, 0x02, 0xf9, 0x02, 0xfd, 0x02,
  0x0f, 0x25, 0x26, 0x06, 0x04, 0x39, 0x10, 0x30, 0x18, 0xff, 0xf5, 0x20,
  0x11, 0x09, 0x02, 0x00, 0x0c, 0x07, 0x0e, 0x00, 0x24, 0x1a, 0x2d, 0x1b,
  0x13, 0x1a, 0x06, 0xf8, 0xc8, 0xe2, 0x2f, 0x37, 0xf8, 0x58, 0x08, 0x20,
  0x21, 0x0c, 0x01, 0x04, 0x0f, 0x0c, 0x15, 0x03, 0x27, 0x1a, 0x38, 0x17,
  0x25, 0x2c, 0x0f, 0x0d, 0x2a, 0xfd, 0x13, 0x25, 0xc9, 0xe4, 0x12, 0x1b,
  0x18, 0x46, 0x32, 0x2f, 0x1e, 0x09, 0xeb, 0x11, 0x14, 0x22, 0x22, 0x10,
  0x1d, 0x4e, 0x3e, 0x17, 0x15, 0x12, 0x05, 0x19, 0xf6, 0x00, 0x1c, 0x39,
  0x1b, 0x34, 0x06, 0x3f, 0x13, 0x27, 0x39, 0x41, 0x2d, 0x0b, 0x2d, 0x0e,
  0x21, 0x2b, 0x2f, 0x26, 0x1a, 0x56, 0x23, 0x14, 0xf0, 0xf4, 0x19, 0x10,
  0x10, 0xf7, 0xf1, 0x16, 0x3c, 0x22, 0x25, 0x06, 0xf3, 0x41, 0x02, 0x0a,
  0x2b, 0x08, 0x2a, 0x14, 0x13, 0x09, 0x11, 0x16, 0x0a, 0x0a, 0xd5, 0xe1,
  0xce, 0xf3, 0x12, 0x01, 0xe9, 0xe6, 0xf5, 0xfa, 0x29, 0x4b, 0x7d, 0x0d,
  0xf7, 0x2f, 0x13, 0xd8, 0xf7, 0x00, 0x1e, 0x17, 0x14, 0x10, 0xfe, 0xe3,
  0xec, 0xa8, 0x9f, 0xc0, 0xcd, 0xf6, 0xf9, 0xf5, 0xf6, 0xf1, 0xe2, 0xcb,
  0x06, 0x18, 0x4d, 0xf2, 0x11, 0x31, 0x38, 0xbd, 0xa5, 0xe2, 0xf7, 0x00,
  0xf1, 0xfa, 0xf2, 0xdd, 0xc7, 0xbb, 0xe0, 0xb6, 0xbc, 0xe5, 0x06, 0xde,
  0xdf, 0xe0, 0xe2, 0xbc, 0x0a, 0xa5, 0x17, 0xf5, 0x20, 0x0c, 0x4e, 0xd1,
  0xb7, 0xc9, 0xe5, 0xd7, 0xca, 0xdb, 0xd1, 0xcd, 0xd2, 0xe8, 0xf7, 0xe5,
  0xbb, 0xda, 0xeb, 0xc6, 0xf1, 0x05, 0xf2, 0x07, 0x39, 0xb3, 0x0e, 0x26,
  0x0b, 0xd5, 0x09, 0xc6, 0xaa, 0xde, 0xf5, 0xe2, 0xc1, 0xd2, 0xcf, 0xf8,
  0x0c, 0x23, 0x1a, 0xf6, 0xdb, 0xc2, 0xca, 0xae, 0xe8, 0x11, 0xee, 0x12,
  0x63, 0xca, 0xe3, 0x2d, 0xe7, 0xd0, 0x07, 0xd7, 0xa9, 0xc6, 0xc9, 0xf5,
  0xcb, 0xf8, 0xfe, 0x03, 0x24, 0x37, 0x17, 0xe3, 0xe0, 0xc7, 0xb0, 0xd1,
  0xe0, 0x10, 0xee, 0x1e, 0x42, 0xdf, 0xf3, 0x34, 0xf4, 0xe9, 0xde, 0xe7,
  0xdb, 0xcf, 0xe9, 0xde, 0xe8, 0x05, 0x21, 0x2e, 0x23, 0x2a, 0x13, 0xde,
  0xd1, 0xd0, 0xdb, 0xf2, 0xfb, 0xf4, 0xf7, 0x23, 0x1b, 0x35, 0x27, 0x47,
  0x0f, 0xf5, 0xdf, 0x0d, 0xfa, 0xde, 0xd7, 0xe7, 0xe5, 0xed, 0x0f, 0x04,
  0x0f, 0x00, 0xe6, 0xe4, 0xe7, 0xe8, 0xe5, 0xea, 0x0e, 0x09, 0x0e, 0x06,
  0x23, 0xec, 0x24, 0x64, 0xec, 0xf5, 0x47, 0xfe, 0x14, 0xde, 0xfb, 0xee,
  0xef, 0xdd, 0xdd, 0xf3, 0x00, 0x0c, 0xfb, 0xfe, 0xee, 0x01, 0xf7, 0xfe,
  0x35, 0x11, 0x11, 0xfa, 0xe9, 0xed, 0x5d, 0x3a, 0xf8, 0xf8, 0x3d, 0x29,
  0x31, 0xf1, 0x20, 0x14, 0x08, 0x05, 0xfc, 0x16, 0x1e, 0x15, 0x16, 0x29,
  0x19, 0x1e, 0x25, 0x36, 0x28, 0x23, 0x22, 0x0e, 0xe0, 0xde, 0x10, 0x1c,
  0x04, 0x0b, 0x34, 0x1e, 0x33, 0x12, 0x0b, 0x14, 0x00, 0x04, 0x01, 0x0c,
  0x31, 0x25, 0x32, 0x3f, 0x2f, 0x37, 0x3b, 0x56, 0x2e, 0x10, 0x27, 0x39,
  0x39, 0x22, 0x24, 0x0a, 0x13, 0xf4, 0x26, 0x25, 0x03, 0x35, 0x17, 0x11,
  0x0e, 0x29, 0xf6, 0x0d, 0x01, 0x23, 0x3f, 0x3e, 0x28, 0x3c, 0x48, 0x30,
  0x19, 0xfd, 0xed, 0x2c, 0x02, 0xfb, 0x0c, 0x0f, 0x01, 0xfe, 0x18, 0x10,
  0x29, 0x1b, 0x1e, 0x0c, 0xe7, 0x09, 0x00, 0x2e, 0x29, 0x17, 0x20, 0x22,
  0x2e, 0x34, 0x0f, 0x28, 0x0a, 0xcf, 0xf2, 0x04, 0xf4, 0xf6, 0x37, 0x0d,
  0xf2, 0xf2, 0xe2, 0xe4, 0x1b, 0x1b, 0x08, 0xe3, 0xf0, 0x0c, 0xff, 0x1f,
  0x2e, 0x1e, 0x31, 0x19, 0x0c, 0x12, 0x41, 0x33, 0xf0, 0xf5, 0x09, 0xd0,
  0x41, 0xe0, 0x21, 0x02, 0xf5, 0x0f, 0xdb, 0x17, 0x19, 0xf8, 0x33, 0x30,
  0x39, 0x29, 0xf9, 0x24, 0x36, 0x18, 0xfa, 0x13, 0x2c, 0x28, 0x07, 0x40,
  0x1d, 0x10, 0x18, 0xd0, 0xf9, 0xe3, 0x07, 0x07, 0x06, 0x01, 0xf6, 0xf4,
  0xd8, 0xd0, 0xdf, 0x07, 0x13, 0xf2, 0x27, 0x3d, 0x00, 0x0b, 0x02, 0x0b,
  0x0a, 0x03, 0x14, 0x3f, 0xfa, 0xec, 0x0c, 0x46, 0xf4, 0x24, 0xff, 0xf2,
  0xf2, 0x06, 0xf8, 0xf8, 0x10, 0x3a, 0x50, 0x5d, 0x4c, 0x28, 0x2f, 0x14,
  0x0f, 0x7f, 0x19, 0xf5, 0xeb, 0x0f, 0xfb, 0xf0, 0xd8, 0xda, 0xe3, 0x2b,
  0x09, 0x0d, 0x00, 0xfb, 0xf6, 0x0b, 0xf7, 0x0a, 0x0c, 0x08, 0x03, 0x0b,
  0xfc, 0x00, 0x00, 0xfe, 0xec, 0xf0, 0xf5, 0xfa, 0x04, 0xf5, 0xf9, 0xf6,
  0xfe, 0xfa, 0xfa, 0xfd, 0x0a, 0x00, 0x05, 0xf7, 0xf8, 0x01, 0xfa, 0x00,
  0xfc, 0xfd, 0xdc, 0xdb, 0xe7, 0xdb, 0xd3, 0xf6, 0xde, 0xe8, 0x0a, 0x18,
  0x2e, 0x1c, 0xfa, 0xea, 0xef, 0xf7, 0xed, 0xf2, 0x09, 0x01, 0x08, 0x0a,
  0xfc, 0xfb, 0x07, 0x1b, 0x21, 0xde, 0xd0, 0xcd, 0xc8, 0xf0, 0x0f, 0x02,
  0x0d, 0x13, 0xf4, 0xc0, 0xbf, 0xcb, 0xdf, 0xf4, 0xfc, 0xef, 0xd9, 0xff,
  0x13, 0x0f, 0xf6, 0xfe, 0x0a, 0xf5, 0x0f, 0x21, 0x1b, 0xe7, 0xd3, 0xf7,
  0xe8, 0xf5, 0xf6, 0xe9, 0xff, 0xf7, 0xca, 0xa1, 0xb5, 0xe2, 0xcf, 0xab,
  0xd1, 0xca, 0xd6, 0x03, 0x0c, 0x1d, 0x06, 0x07, 0xf6, 0x06, 0x12, 0x1c,
  0xef, 0x00, 0x0e, 0xf0, 0x07, 0xf0, 0xe8, 0x02, 0x06, 0xf4, 0xc7, 0xce,
  0xaf, 0xad, 0xac, 0xa1, 0x8d, 0xcd, 0xbb, 0xde, 0xf5, 0x0a, 0xff, 0xf6,
  0xf7, 0x05, 0x02, 0x51, 0x0c, 0x19, 0x15, 0x17, 0x04, 0x0c, 0x03, 0xfd,
  0xee, 0xe3, 0xc7, 0xd5, 0xb9, 0x9e, 0xd8, 0xe1, 0xd7, 0xda, 0xcb, 0xbb,
  0xd1, 0xfb, 0xe1, 0xfe, 0xf9, 0x0c, 0x04, 0x5d, 0x1b, 0xd2, 0x0c, 0x09,
  0x01, 0x0c, 0x03, 0xeb, 0xed, 0x0a, 0x0a, 0xf2, 0xec, 0xd9, 0xec, 0xc0,
  0xe5, 0xfb, 0x9a, 0x9d, 0xa5, 0xdd, 0x23, 0x17, 0xff, 0x40, 0x31, 0x5b,
  0x14, 0xc7, 0x1a, 0x0c, 0x08, 0xff, 0xee, 0xf7, 0x0e, 0x26, 0x26, 0x1b,
  0xfb, 0xf2, 0xce, 0xc9, 0xde, 0xf1, 0xd1, 0xac, 0xc1, 0xb4, 0x0d, 0x23,
  0xd9, 0x2d, 0x1c, 0x18, 0x29, 0xf2, 0x0a, 0x09, 0x07, 0xfe, 0x18, 0x16,
  0x22, 0x2c, 0x3e, 0x21, 0x1c, 0x06, 0xf1, 0xfe, 0xe3, 0xf2, 0x00, 0xd9,
  0xb5, 0xad, 0x07, 0xe0, 0x14, 0x45, 0x05, 0x23, 0x30, 0x10, 0x1b, 0x0b,
  0x0f, 0x13, 0x2f, 0x14, 0x36, 0x34, 0x53, 0x3e, 0x22, 0x11, 0x09, 0xf7,
  0xed, 0xe3, 0x11, 0xe8, 0xdc, 0xce, 0xff, 0x1e, 0x15, 0x3a, 0x02, 0x32,
  0xec, 0x1a, 0x2a, 0x25, 0x1e, 0x28, 0x2d, 0x31, 0x1e, 0x38, 0x65, 0x29,
  0x1f, 0xf5, 0x06, 0xf7, 0xfc, 0xf2, 0x21, 0x0b, 0xcd, 0xeb, 0xfb, 0x3b,
  0x03, 0x3d, 0x3a, 0x3b, 0x02, 0x1e, 0x0f, 0x11, 0x21, 0x19, 0x15, 0x2f,
  0x1d, 0x30, 0x47, 0x1d, 0xfd, 0xfe, 0x1a, 0xfc, 0x0c, 0xf7, 0x10, 0x1c,
  0xe8, 0xd5, 0xeb, 0x1d, 0x0c, 0x45, 0x3a, 0x0d, 0x1f, 0x29, 0x0d, 0x0e,
  0x05, 0x02, 0xed, 0xe4, 0xe0, 0xfd, 0x16, 0x13, 0xfb, 0x18, 0x10, 0xfe,
  0xf8, 0xdd, 0x04, 0x07, 0xf2, 0x08, 0x06, 0x32, 0xea, 0x2e, 0x54, 0x06,
  0x07, 0xec, 0xef, 0xf5, 0xee, 0xea, 0xe5, 0xe1, 0xc9, 0xec, 0x10, 0x02,
  0xfd, 0x0f, 0xfb, 0xec, 0xe7, 0xea, 0x0a, 0x03, 0x2e, 0x24, 0x16, 0x29,
  0xd8, 0x23, 0x44, 0x24, 0x04, 0xd6, 0xea, 0xe8, 0xda, 0xf1, 0xf1, 0xef,
  0xfa, 0xf5, 0x06, 0x05, 0xf8, 0x02, 0x1c, 0x06, 0x0d, 0x08, 0xf2, 0x0e,
  0x20, 0x0f, 0x41, 0x2b, 0xeb, 0xfd, 0xe5, 0x07, 0xf7, 0xfd, 0xfb, 0xeb,
  0xed, 0xdc, 0xf8, 0xfb, 0xf3, 0x0c, 0xf5, 0xfe, 0xf0, 0x1a, 0x19, 0x27,
  0x2c, 0x15, 0x0a, 0xf1, 0x16, 0xeb, 0xf7, 0x32, 0x2a, 0x08, 0x00, 0xe1,
  0x08, 0xf5, 0x0a, 0x13, 0x09, 0xfd, 0x08, 0x09, 0xfc, 0xfa, 0xe3, 0xeb,
  0x05, 0x16, 0x10, 0x28, 0x0a, 0x1f, 0x1b, 0x04, 0xf0, 0xea, 0x28, 0x3a,
  0x07, 0x0f, 0xfa, 0xff, 0xf4, 0xf0, 0x0f, 0x07, 0x10, 0xff, 0xee, 0x04,
  0x08, 0x0c, 0xf7, 0xfb, 0xf1, 0x0e, 0x1b, 0x15, 0x15, 0x13, 0x16, 0xf4,
  0xf9, 0x0a, 0x29, 0x36, 0x28, 0x13, 0x01, 0x0d, 0xf7, 0x06, 0xfd, 0x0b,
  0xf6, 0xf1, 0x11, 0x09, 0xea, 0xea, 0xf0, 0xf5, 0xf3, 0x1e, 0x1d, 0x1b,
  0x07, 0x0e, 0x2d, 0xf8, 0xf1, 0x04, 0x3a, 0x31, 0xf3, 0x21, 0xf9, 0xea,
  0x12, 0xe7, 0xcf, 0xe6, 0xeb, 0xf0, 0x03, 0xe1, 0xed, 0xef, 0xee, 0xee,
  0xf9, 0xfd, 0x10, 0x14, 0x11, 0x11, 0x38, 0x13, 0x01, 0xe3, 0x49, 0x23,
  0x07, 0x0b, 0x0d, 0x02, 0x15, 0xff, 0xdd, 0xe6, 0x15, 0xf6, 0xef, 0xd8,
  0xd9, 0xff, 0xf6, 0xf7, 0xef, 0xea, 0xf4, 0x16, 0x09, 0x1d, 0x22, 0x1e,
  0x39, 0x12, 0x2a, 0xfa, 0x06, 0x1a, 0x24, 0x20, 0x21, 0xfc, 0xea, 0xef,
  0xed, 0xf8, 0xf5, 0xe4, 0x02, 0xeb, 0xf0, 0x05, 0xf4, 0xe9, 0xee, 0x06,
  0xf7, 0xf3, 0xdd, 0xf8, 0x17, 0xe8, 0xfe, 0x0a, 0x05, 0x0a, 0x2b, 0xf7,
  0xff, 0xf7, 0x08, 0xec, 0x05, 0x05, 0xf0, 0xe6, 0x05, 0x01, 0xff, 0xfe,
  0xf7, 0xf2, 0xf6, 0xdc, 0xfb, 0xd5, 0xe6, 0xef, 0x02, 0xf9, 0xcd, 0x01,
  0x00, 0xf7, 0x00, 0xdb, 0x03, 0x05, 0x0d, 0xff, 0xeb, 0xeb, 0xe3, 0x15,
  0x0a, 0x03, 0xf5, 0x09, 0xfc, 0xf6, 0xe9, 0xe8, 0xd3, 0xcf, 0xd7, 0xe9,
  0x1b, 0x0e, 0xf7, 0x09, 0xf8, 0xf4, 0x0b, 0x08, 0x7f, 0x7f, 0x28, 0xf4,
  0xe1, 0xc9, 0xe6, 0xea, 0xdf, 0xf6, 0xe9, 0xf4, 0x01, 0x0f, 0xf4, 0xef,
  0xe4, 0xe2, 0xed, 0xeb, 0xff, 0x0f, 0x28, 0x0c, 0xfe, 0x00, 0x0f, 0xfa,
  0x05, 0x29, 0x15, 0x14, 0x27, 0xf3, 0xfe, 0xf6, 0x28, 0xf8, 0x27, 0x01,
  0x23, 0x39, 0x13, 0x24, 0x0f, 0xed, 0xd5, 0xd7, 0xec, 0x1b, 0x16, 0x0a,
  0x01, 0xf7, 0xfd, 0x1e, 0xea, 0xf0, 0x12, 0x52, 0x63, 0x7d, 0x7a, 0x28,
  0x21, 0x49, 0x6a, 0x40, 0x51, 0x4a, 0x5c, 0x70, 0x6a, 0x71, 0x4d, 0x4d,
  0x20, 0x0b, 0xf8, 0x05, 0xfb, 0xf7, 0xfa, 0x05, 0x13, 0x21, 0x31, 0x31,
  0x29, 0x3e, 0x48, 0x25, 0x18, 0x4d, 0x71, 0x41, 0x4d, 0x62, 0x5c, 0x4f,
  0x36, 0x36, 0x48, 0x31, 0x00, 0xf9, 0xff, 0x02, 0x05, 0x03, 0xfd, 0x07,
  0xff, 0xfc, 0x02, 0xfc, 0x03, 0xfe, 0x05, 0x02, 0x0a, 0x09, 0x0b, 0x0b,
  0xfa, 0xfb, 0x01, 0x05, 0x08, 0xfd, 0x01, 0xfb, 0x05, 0xfe, 0x01, 0x01,
  0x01, 0x03, 0x01, 0x04, 0x0e, 0x0c, 0x17, 0x15, 0x24, 0x26, 0x2a, 0x2d,
  0x2c, 0x2e, 0x0f, 0x0d, 0x3e, 0x45, 0x1c, 0x1a, 0x15, 0x0f, 0x1e, 0x19,
  0xf9, 0x01, 0xfb, 0x05, 0x07, 0xf8, 0xfb, 0xff, 0x0f, 0x1c, 0x23, 0x2a,
  0x34, 0x37, 0x3c, 0x31, 0x22, 0x13, 0x31, 0x2b, 0x2a, 0x16, 0x04, 0xf7,
  0x09, 0x18, 0x1c, 0x23, 0x17, 0x0a, 0x02, 0x00, 0x06, 0x02, 0xee, 0xfb,
  0x09, 0x27, 0x2b, 0x20, 0x2b, 0x24, 0x15, 0x1d, 0x1e, 0x0c, 0x12, 0x03,
  0xf8, 0xe7, 0xed, 0xf4, 0x07, 0x22, 0x2e, 0x2b, 0x1c, 0x19, 0x15, 0x01,
  0x05, 0xfb, 0xff, 0x0b, 0x04, 0x1b, 0x19, 0x00, 0x02, 0xf3, 0xf8, 0x02,
  0xfb, 0xee, 0xf2, 0xe3, 0xf0, 0xf0, 0xef, 0x02, 0x09, 0x04, 0x0a, 0x07,
  0x13, 0x26, 0x1b, 0x1b, 0xf9, 0xfa, 0xfc, 0xf2, 0x21, 0x1b, 0x11, 0x0d,
  0x09, 0xfe, 0x0b, 0x00, 0x09, 0xff, 0x04, 0xfb, 0xf8, 0xf5, 0xf0, 0xea,
  0xf2, 0xee, 0xff, 0x06, 0x14, 0x19, 0x13, 0x16, 0xfa, 0x11, 0x1c, 0x0a,
  0x19, 0x23, 0x1e, 0x15, 0x04, 0x18, 0x17, 0x19, 0x0b, 0xfe, 0x05, 0x02,
  0x04, 0xfc, 0xf7, 0x06, 0x00, 0xee, 0xfe, 0xf9, 0xfd, 0x11, 0x0c, 0x14,
  0x00, 0x20, 0x23, 0x0e, 0x08, 0x10, 0x0e, 0x0f, 0x0f, 0x16, 0x1a, 0x13,
  0x05, 0x13, 0x07, 0x05, 0x0f, 0x10, 0x04, 0xfc, 0x07, 0xfc, 0x04, 0xf4,
  0xfb, 0xfc, 0x07, 0x0b, 0xfc, 0x1b, 0x25, 0x03, 0x0f, 0x07, 0xf7, 0x0f,
  0x08, 0x09, 0x18, 0x1d, 0x0f, 0x09, 0x11, 0x0c, 0x06, 0x0d, 0x03, 0x09,
  0x08, 0xf9, 0x12, 0x05, 0xd6, 0xc7, 0x04, 0xed, 0x07, 0x0b, 0x0d, 0x00,
  0x16, 0x03, 0xfc, 0x0c, 0x0f, 0x12, 0x0d, 0x0f, 0x15, 0xe9, 0xeb, 0xfa,
  0x02, 0x07, 0x01, 0xf8, 0xf1, 0xfc, 0x08, 0x02, 0xda, 0xd5, 0xf4, 0x0c,
  0xfa, 0x04, 0xf8, 0xf3, 0x0c, 0x04, 0xf7, 0x03, 0x0a, 0xfa, 0xfc, 0xee,
  0xca, 0xb7, 0xcb, 0xec, 0xf8, 0x08, 0xfd, 0xf6, 0xfc, 0xf6, 0xf4, 0xeb,
  0xfb, 0xf9, 0xfc, 0x11, 0xff, 0x05, 0xf8, 0xf2, 0xee, 0xee, 0xeb, 0xea,
  0xee, 0xd5, 0xbb, 0xb2, 0x87, 0xc2, 0xed, 0xfa, 0x06, 0xfa, 0xf6, 0xfa,
  0x02, 0xfd, 0x03, 0xfd, 0xe9, 0xf2, 0xd0, 0x13, 0x09, 0x00, 0xf5, 0xea,
  0xd7, 0xda, 0xce, 0xca, 0xae, 0x81, 0xaa, 0xca, 0xec, 0x0a, 0x16, 0x09,
  0x02, 0xf6, 0xf0, 0xf0, 0xf4, 0x03, 0xf9, 0xf4, 0xf4, 0x17, 0xec, 0x0d,
  0xeb, 0xf7, 0xff, 0xe0, 0xc2, 0xc5, 0xbe, 0xab, 0xac, 0xcc, 0xf3, 0x06,
  0x0f, 0x1a, 0x0d, 0x0b, 0x00, 0xfa, 0xf0, 0xf3, 0xf6, 0x00, 0xf1, 0x02,
  0x1a, 0x0e, 0xeb, 0x18, 0xf8, 0x07, 0xef, 0xe7, 0xe3, 0xe3, 0xe0, 0xe9,
  0xe7, 0x11, 0x17, 0x17, 0x15, 0x19, 0x13, 0x00, 0x12, 0x03, 0xfd, 0x01,
  0xfe, 0x00, 0xf9, 0x15, 0x21, 0x12, 0xf5, 0x14, 0xf7, 0x0a, 0xec, 0xfb,
  0xf2, 0x0d, 0x00, 0xfb, 0xf7, 0x10, 0x0e, 0x0e, 0x0f, 0x1a, 0x09, 0x0c,
  0x06, 0xf2, 0x04, 0x01, 0x01, 0x0a, 0x07, 0x22, 0x25, 0x16, 0xed, 0x0a,
  0xf9, 0x17, 0x1c, 0x16, 0x16, 0x0e, 0x15, 0x02, 0xfa, 0x06, 0x14, 0x06,
  0x0d, 0x10, 0x05, 0x05, 0x03, 0xf7, 0x01, 0x10, 0x03, 0x0b, 0xfe, 0x20,
  0x15, 0x10, 0x02, 0xff, 0xfe, 0x15, 0x25, 0x1f, 0x12, 0x04, 0x04, 0xf7,
  0xff, 0x09, 0x1a, 0x0d, 0x0e, 0x0d, 0x02, 0x06, 0xf6, 0xfa, 0x0b, 0x00,
  0xed, 0x09, 0x03, 0x03, 0xfa, 0x14, 0x00, 0xea, 0x06, 0xfe, 0x2a, 0x36,
  0x15, 0x04, 0xf8, 0xfe, 0xfc, 0xfb, 0x00, 0x06, 0x12, 0x03, 0x0a, 0x05,
  0x11, 0x0f, 0x13, 0x14, 0x00, 0x10, 0x09, 0xfd, 0xf7, 0x2b, 0x25, 0x10,
  0xf1, 0xfa, 0x11, 0x1d, 0x0f, 0x04, 0xfe, 0xf3, 0xe6, 0xfe, 0xfe, 0x02,
  0x05, 0x0e, 0x18, 0x10, 0x11, 0x12, 0x08, 0x0a, 0x0a, 0x03, 0xf9, 0xec,
  0xf8, 0x0d, 0x27, 0x0f, 0x06, 0xf2, 0x0b, 0x2f, 0x13, 0xf8, 0xff, 0xf8,
  0xf3, 0x04, 0x00, 0xfa, 0xfc, 0x0d, 0x13, 0xfe, 0xf6, 0xfb, 0x00, 0xfa,
  0xf7, 0xfb, 0xe5, 0xed, 0xf9, 0x0d, 0x1d, 0xf3, 0xfc, 0x03, 0x19, 0x20,
  0x04, 0xf6, 0xf7, 0xfc, 0xf6, 0xfc, 0x03, 0xf2, 0xfc, 0xfc, 0xfb, 0xf7,
  0x06, 0xf8, 0xfa, 0x06, 0xf8, 0x10, 0xfc, 0xe8, 0xf1, 0x09, 0x1b, 0xfb,
  0x00, 0x06, 0x0c, 0x06, 0x09, 0x14, 0xf0, 0xf4, 0xf5, 0xf7, 0xfb, 0xfa,
  0xf7, 0xf8, 0xfa, 0x00, 0x0d, 0x04, 0xf7, 0xff, 0x08, 0x05, 0xfb, 0xea,
  0xef, 0x0c, 0xef, 0x01, 0xfa, 0xff, 0x0a, 0xf4, 0x10, 0x13, 0x12, 0x16,
  0xfe, 0xfc, 0xef, 0x01, 0x05, 0x0a, 0xfb, 0xfe, 0xf5, 0xf4, 0xf2, 0x03,
  0x04, 0xfa, 0xf3, 0xe1, 0xec, 0xff, 0xf8, 0x06, 0xf9, 0xfa, 0x12, 0x1c,
  0x3b, 0x0b, 0xfb, 0x0b, 0x0d, 0x00, 0x00, 0x04, 0xfd, 0xf6, 0xfc, 0xf2,
  0xec, 0x05, 0xdd, 0xe1, 0xf4, 0xfe, 0xfe, 0xfc, 0x0e, 0x04, 0x07, 0x03,
  0xfd, 0x05, 0xfa, 0x2c, 0x14, 0x05, 0x01, 0x0d, 0x22, 0x1a, 0x0f, 0x08,
  0xff, 0xf4, 0xfb, 0x0a, 0x0c, 0xf8, 0xe9, 0xe3, 0xe4, 0xde, 0xcc, 0xe5,
  0xef, 0xf4, 0x0e, 0x02, 0x01, 0xf8, 0x02, 0xfb, 0xe7, 0xe9, 0xe6, 0x0d,
  0x1a, 0x10, 0x0a, 0xf9, 0xff, 0x06, 0x1a, 0x10, 0xf7, 0xfc, 0x0e, 0xf3,
  0xf1, 0xee, 0xef, 0xf4, 0xfd, 0x08, 0xff, 0xf9, 0x01, 0x06, 0xfa, 0xfe,
  0x08, 0x07, 0x14, 0x0f, 0x11, 0x1d, 0x2b, 0x2f, 0x2f, 0x2a, 0x1b, 0x22,
  0x1b, 0x0d, 0x07, 0xfb, 0xf8, 0xf0, 0xeb, 0xfe, 0x03, 0x08, 0x07, 0xfa,
  0xfb, 0xf8, 0xfe, 0x00, 0x01, 0x05, 0x0b, 0xfe, 0xfc, 0xf4, 0x08, 0xf9,
  0x21, 0x20, 0xfe, 0xff, 0x07, 0xf8, 0x03, 0x03, 0xfa, 0x06, 0xfe, 0xf5,
  0x06, 0x02, 0x07, 0xfd, 0x0a, 0xf4, 0x0c, 0xfb, 0x06, 0x12, 0x15, 0x19,
  0x1e, 0x2e, 0x2b, 0x0d, 0x19, 0x0f, 0xf9, 0xf1, 0xd9, 0xe8, 0x4a, 0x30,
  0x24, 0x29, 0x1b, 0x04, 0xfc, 0xf8, 0xf6, 0x01, 0xf8, 0xfd, 0x08, 0x20,
  0x28, 0x00, 0xf1, 0xee, 0x0e, 0xee, 0xfc, 0x01, 0xe5, 0xf7, 0xdf, 0xfc,
  0x13, 0x4e, 0x58, 0x4b, 0x2d, 0x35, 0x4c, 0x43, 0x02, 0xdf, 0x07, 0x04,
  0x0b, 0xfe, 0xe9, 0x44, 0x2c, 0x26, 0x1e, 0x3d, 0x44, 0x0f, 0xfc, 0x08,
  0x0c, 0x03, 0xfb, 0x0d, 0x15, 0x17, 0x3d, 0x38, 0x43, 0x35, 0x45, 0x5b,
  0x31, 0xee, 0x26, 0x06, 0xf8, 0x02, 0x06, 0x3b, 0x12, 0x13, 0xf5, 0x03,
  0x11, 0x1a, 0x25, 0xe4, 0xec, 0xf0, 0xe6, 0xf5, 0x1d, 0x11, 0x23, 0x26,
  0x26, 0x46, 0x2c, 0x43, 0x32, 0x2b, 0x2c, 0x25, 0x0b, 0x0c, 0x2a, 0x27,
  0xfb, 0xf4, 0x03, 0x0c, 0xfb, 0xfe, 0xf5, 0xca, 0xd9, 0xea, 0xee, 0xf6,
  0x05, 0x25, 0x0f, 0x2d, 0x35, 0x1b, 0x2a, 0x39, 0x32, 0x1c, 0x33, 0x2b,
  0x07, 0x1a, 0x06, 0xd0, 0xfa, 0x0f, 0x08, 0x06, 0x03, 0xf4, 0xf0, 0xd1,
  0xeb, 0xdd, 0xf0, 0xf5, 0xf0, 0x03, 0x02, 0x29, 0x20, 0xf4, 0xff, 0x32,
  0x71, 0x6d, 0x4e, 0x1f, 0xf9, 0x15, 0xe2, 0xd6, 0x07, 0x34, 0x01, 0x17,
  0x00, 0x01, 0xf7, 0xec, 0xdf, 0xd2, 0xff, 0x09, 0xff, 0x03, 0x11, 0x1b,
  0xfe, 0xed, 0xf9, 0x1e, 0x19, 0x19, 0x65, 0x4a, 0xff, 0xc1, 0xdf, 0x04,
  0xf0, 0x04, 0xd8, 0x03, 0xfa, 0xfb, 0xea, 0xf3, 0xf9, 0xfd, 0xf8, 0x03,
  0x0f, 0x12, 0x0b, 0x0a, 0x0a, 0x10, 0x04, 0xf6, 0xff, 0x31, 0x5f, 0x3c,
  0xf4, 0xde, 0xef, 0xf5, 0xfe, 0xe4, 0xdc, 0xfd, 0x06, 0xf9, 0xfb, 0x15,
  0x07, 0x0c, 0x0e, 0x0b, 0x14, 0x0f, 0xf3, 0xf9, 0x00, 0xff, 0x0b, 0xfc,
  0x09, 0x45, 0x37, 0xe0, 0xeb, 0xf1, 0xed, 0x02, 0x02, 0xe4, 0xe6, 0xfe,
  0x04, 0xfc, 0x1f, 0x0a, 0x1e, 0x15, 0x04, 0x1f, 0xf4, 0xfe, 0xed, 0xe9,
  0xe6, 0xd4, 0xdb, 0xf6, 0x2a, 0x23, 0x27, 0xd5, 0xe7, 0xce, 0xcc, 0x08,
  0x2e, 0x10, 0xf5, 0xee, 0xf1, 0xff, 0x05, 0xfa, 0x21, 0x1c, 0x1d, 0x1e,
  0x15, 0x00, 0xfd, 0xde, 0xd1, 0xd1, 0xb4, 0xe4, 0x21, 0x2d, 0x49, 0xe8,
  0xf7, 0xcf, 0xbb, 0x03, 0x06, 0x10, 0x01, 0xfd, 0xde, 0xf7, 0x14, 0x06,
  0x19, 0x25, 0x2e, 0x25, 0x07, 0xf7, 0xe0, 0xcc, 0xd3, 0xc7, 0xc4, 0xcc,
  0xb8, 0xe1, 0xfe, 0xcb, 0x11, 0xe1, 0xc1, 0x10, 0xde, 0x03, 0x08, 0xdf,
  0xf7, 0xff, 0xeb, 0xf3, 0x19, 0x28, 0x1e, 0x1f, 0x0a, 0xf9, 0xec, 0xfd,
  0xe0, 0xcb, 0xb7, 0xd1, 0xad, 0xbe, 0xcf, 0xe3, 0x25, 0x17, 0xd6, 0xfc,
  0xde, 0x02, 0x00, 0xe8, 0x03, 0xff, 0x01, 0xf8, 0x26, 0x21, 0x29, 0x14,
  0x1a, 0xf8, 0xd1, 0xd6, 0xe6, 0xe7, 0xf3, 0xce, 0xcf, 0xcc, 0xdd, 0xde,
  0x11, 0x2e, 0x54, 0xd7, 0x01, 0x0f, 0x0e, 0xf0, 0xf5, 0xf5, 0xf2, 0xf5,
  0x20, 0x29, 0x29, 0x07, 0xf8, 0xe2, 0xfb, 0xfa, 0x02, 0x0a, 0x1d, 0x19,
  0xf8, 0xf3, 0x07, 0xdf, 0xe5, 0x2a, 0x37, 0x17, 0x0d, 0x22, 0xee, 0xf0,
  0xeb, 0xea, 0xe5, 0xf4, 0x06, 0x23, 0x06, 0xf3, 0xd1, 0xe0, 0x01, 0x12,
  0x02, 0x04, 0x04, 0x19, 0x16, 0xe1, 0xd9, 0xd3, 0xf4, 0x20, 0x26, 0x18,
  0x0c, 0x21, 0x01, 0x1b, 0xfb, 0xfd, 0xec, 0xf1, 0xf9, 0xff, 0xf1, 0xdd,
  0xe3, 0xfc, 0x07, 0x0f, 0x0b, 0x16, 0x13, 0x0c, 0xe9, 0x81, 0xd4, 0xc8,
  0xd6, 0x17, 0x2c, 0x2d, 0x19, 0x32, 0x0f, 0x04, 0x08, 0x0c, 0xf7, 0x07,
  0x28, 0xff, 0xf8, 0x02, 0x06, 0xfc, 0x0b, 0x1e, 0x26, 0x1a, 0xf3, 0xf8,
  0xcc, 0xb6, 0xb9, 0xd4, 0x0a, 0xd7, 0x02, 0x13, 0x07, 0x15, 0x17, 0x14,
  0x09, 0x10, 0x0a, 0x0a, 0xf1, 0xf4, 0xe8, 0x0d, 0x02, 0x10, 0x1e, 0x18,
  0x38, 0x29, 0xf6, 0x1c, 0xfc, 0xe4, 0xb8, 0xe2, 0xf8, 0xe4, 0xf4, 0xfc,
  0x17, 0x05, 0x11, 0x0d, 0x06, 0x32, 0x17, 0x0b, 0xe9, 0xf4, 0x12, 0x14,
  0x05, 0x15, 0x31, 0x31, 0x30, 0x17, 0x1a, 0xfe, 0xdd, 0xd3, 0xf5, 0x19,
  0x01, 0x0a, 0xec, 0xe2, 0xec, 0xe4, 0xe7, 0xf0, 0x01, 0x0a, 0x07, 0x10,
  0x0b, 0x15, 0x15, 0x0d, 0x0b, 0x26, 0x2a, 0x16, 0x33, 0x10, 0xec, 0xc2,
  0xc9, 0xa4, 0xd1, 0xf9, 0x0b, 0x12, 0xec, 0xf4, 0xee, 0xcb, 0xc7, 0xda,
  0xdf, 0xda, 0xec, 0x1b, 0x02, 0x07, 0x10, 0x2a, 0x1c, 0x23, 0x1a, 0x20,
  0x13, 0x1d, 0x02, 0xf3, 0xc6, 0xbc, 0x05, 0xf4, 0xfe, 0x03, 0x31, 0x29,
  0x25, 0x09, 0xf9, 0xe5, 0xee, 0xfc, 0x02, 0xfd, 0x09, 0x03, 0x17, 0x2b,
  0x04, 0x0a, 0x29, 0x29, 0x20, 0xfe, 0xf4, 0xdd, 0xe5, 0xc1, 0xf2, 0xf5,
  0x00, 0xf8, 0x2f, 0x59, 0x27, 0xe2, 0xfb, 0xfc, 0x10, 0x27, 0x04, 0x15,
  0x0d, 0x18, 0x1f, 0x13, 0x1d, 0x13, 0x13, 0x26, 0x24, 0xff, 0xe5, 0xde,
  0xe8, 0xd7, 0xd2, 0x02, 0x07, 0x09, 0x22, 0xf9, 0xf7, 0xe8, 0x1b, 0x13,
  0x0e, 0x26, 0x29, 0x07, 0x18, 0x1f, 0xfe, 0x12, 0x09, 0xfc, 0x13, 0x27,
  0x25, 0x21, 0x21, 0x16, 0x08, 0xed, 0xfa, 0x09, 0x03, 0xfc, 0x00, 0xec,
